{"!":0,"\"":1,"#":2,"$":3,"%":4,"&":5,"'":6,"(":7,")":8,"*":9,"+":10,",":11,"-":12,".":13,"/":14,"0":15,"1":16,"2":17,"3":18,"4":19,"5":20,"6":21,"7":22,"8":23,"9":24,":":25,";":26,"<":27,"=":28,">":29,"?":30,"@":31,"A":32,"B":33,"C":34,"D":35,"E":36,"F":37,"G":38,"H":39,"I":40,"J":41,"K":42,"L":43,"M":44,"N":45,"O":46,"P":47,"Q":48,"R":49,"S":50,"T":51,"U":52,"V":53,"W":54,"X":55,"Y":56,"Z":57,"[":58,"\\":59,"]":60,"^":61,"_":62,"`":63,"a":64,"b":65,"c":66,"d":67,"e":68,"f":69,"g":70,"h":71,"i":72,"j":73,"k":74,"l":75,"m":76,"n":77,"o":78,"p":79,"q":80,"r":81,"s":82,"t":83,"u":84,"v":85,"w":86,"x":87,"y":88,"z":89,"{":90,"|":91,"}":92,"~":93,"¡":94,"¢":95,"£":96,"¤":97,"¥":98,"¦":99,"§":100,"¨":101,"©":102,"ª":103,"«":104,"¬":105,"®":106,"¯":107,"°":108,"±":109,"²":110,"³":111,"´":112,"µ":113,"¶":114,"·":115,"¸":116,"¹":117,"º":118,"»":119,"¼":120,"½":121,"¾":122,"¿":123,"À":124,"Á":125,"Â":126,"Ã":127,"Ä":128,"Å":129,"Æ":130,"Ç":131,"È":132,"É":133,"Ê":134,"Ë":135,"Ì":136,"Í":137,"Î":138,"Ï":139,"Ð":140,"Ñ":141,"Ò":142,"Ó":143,"Ô":144,"Õ":145,"Ö":146,"×":147,"Ø":148,"Ù":149,"Ú":150,"Û":151,"Ü":152,"Ý":153,"Þ":154,"ß":155,"à":156,"á":157,"â":158,"ã":159,"ä":160,"å":161,"æ":162,"ç":163,"è":164,"é":165,"ê":166,"ë":167,"ì":168,"í":169,"î":170,"ï":171,"ð":172,"ñ":173,"ò":174,"ó":175,"ô":176,"õ":177,"ö":178,"÷":179,"ø":180,"ù":181,"ú":182,"û":183,"ü":184,"ý":185,"þ":186,"ÿ":187,"Ā":188,"ā":189,"Ă":190,"ă":191,"Ą":192,"ą":193,"Ć":194,"ć":195,"Ĉ":196,"ĉ":197,"Ċ":198,"ċ":199,"Č":200,"č":201,"Ď":202,"ď":203,"Đ":204,"đ":205,"Ē":206,"ē":207,"Ĕ":208,"ĕ":209,"Ė":210,"ė":211,"Ę":212,"ę":213,"Ě":214,"ě":215,"Ĝ":216,"ĝ":217,"Ğ":218,"ğ":219,"Ġ":220,"ġ":221,"Ģ":222,"ģ":223,"Ĥ":224,"ĥ":225,"Ħ":226,"ħ":227,"Ĩ":228,"ĩ":229,"Ī":230,"ī":231,"Ĭ":232,"ĭ":233,"Į":234,"į":235,"İ":236,"ı":237,"Ĳ":238,"ĳ":239,"Ĵ":240,"ĵ":241,"Ķ":242,"ķ":243,"ĸ":244,"Ĺ":245,"ĺ":246,"Ļ":247,"ļ":248,"Ľ":249,"ľ":250,"Ŀ":251,"ŀ":252,"Ł":253,"ł":254,"Ń":255,"Ġd":256,"on":257,"er":258,"Ġc":259,"Ġs":260,"Ġa":261,"en":262,"Ġp":263,"in":264,"el":265,"ta":266,"to":267,"la":268,"ti":269,"re":270,"Ġdi":271,"ri":272,"ra":273,"li":274,"te":275,"le":276,"Ġe":277,"an":278,"Ġdel":279,"un":280,"Ġi":281,"Ġm":282,"Ġn":283,"si":284,"ro":285,"Ġin":286,"zi":287,"Ġf":288,"or":289,"he":290,"ia":291,"es":292,"lo":293,"ca":294,"one":295,"Ġun":296,"om":297,"Ġla":298,"Ġcon":299,"Ġal":300,"ar":301,"Ġv":302,"co":303,"ci":304,"Ġil":305,"Ġg":306,"os":307,"qu":308,"al":309,"Ġt":310,"men":311,"di":312,"Ġper":313,"do":314,"Ġche":315,"zione":316,"et":317,"Ġsu":318,"ma":319,"ĠS":320,"Ġ(":321,"Ġqu":322,"ĠC":323,"so":324,"Ġl":325,"Ġ1":326,"Ġo":327,"io":328,"Ġri":329,"va":330,"is":331,"Ġde":332,"za":333,"Ãł":334,"Ġnel":335,"ono":336,"Ġcom":337,"ol":338,"se":339,"tu":340,"Ã¨":341,"po":342,"ĠI":343,"no":344,"ĠP":345,"Ġdella":346,"ĠL":347,"ter":348,"sa":349,"Ġle":350,"ĠA":351,"Ġsi":352,"ĠÃ¨":353,"ĠM":354,"Ġda":355,"gli":356,"ch":357,"Ġan":358,"oni":359,"vi":360,"ce":361,"Ġpro":362,"Ġb":363,"era":364,"Ġse":365,"tto":366,"tÃł":367,"da":368,"Ġca":369,"mp":370,"ano":371,"che":372,"gg":373,"ni":374,"ere":375,"Ġuna":376,"Ġma":377,"mo":378,"mi":379,"mente":380,"bi":381,"ĠG":382,"fi":383,"tra":384,"ina":385,"de":386,"Ġre":387,"pp":388,"ĠB":389,"ve":390,"ran":391,"Ġdal":392,"Ġpi":393,"Ġpo":394,"Ġ2":395,"na":396,"Ã²":397,"Âł":398,"vo":399,"Ġso":400,"00":401,"ĠR":402,"ĠN":403,"ale":404,"ĠT":405,"Ġtra":406,"ĠD":407,"as":408,"Ġpre":409,"eri":410,"ui":411,"Ġes":412,"ten":413,"us":414,"tti":415,"bb":416,"tro":417,"cc":418,"tta":419,"Ġdell":420,"gi":421,"ver":422,"Ġnon":423,"Ġdei":424,"Ġsta":425,"ĠF":426,"tri":427,"Ġ19":428,"ine":429,"Ġpar":430,"ini":431,"ali":432,"ero":433,"tan":434,"Ã¹":435,"Ġvi":436,"pi":437,"tori":438,"Ġci":439,"zza":440,"cia":441,"zioni":442,"tre":443,"con":444,"ente":445,"me":446,"Ġte":447,"Ġlo":448,"mento":449,"Ġu":450,"ru":451,"Ġcome":452,"pa":453,"enti":454,"ino":455,"ĠpiÃ¹":456,"Ġdelle":457,"Ġra":458,"Ġh":459,"Ġdo":460,"Ġfa":461,"ĠE":462,"Ġsono":463,"ga":464,"ene":465,"mb":466,"Ġfu":467,"ani":468,"go":469,"Ġalla":470,"enza":471,"Ġques":472,"Ġpri":473,"Ġ\"":474,"ari":475,"ff":476,"ĠV":477,"ul":478,"Ġne":479,"ssi":480,"Ġcos":481,"ne":482,"Ġmo":483,"gu":484,"chi":485,"ĠLa":486,"Ġfor":487,"Ġpa":488,"Ġme":489,"hi":490,"Ġfi":491,"du":492,"Ġsp":493,"lu":494,"Ġdu":495,"ando":496,"tura":497,"Ġtu":498,"Ġanche":499,"sti":500,"dia":501,"Ġsul":502,"tale":503,"uo":504,"Ġgi":505,"Ġdis":506,"Ġgli":507,"ĠIl":508,"),":509,"ven":510,"Ġ-":511,"ggi":512,"Ġad":513,"tali":514,"uni":515,"sione":516,"Ġall":517,"Ã©":518,"tica":519,"ona":520,"Ġnella":521,"Ġcomp":522,"tico":523,"Ġli":524,"ĠW":525,"Ġquel":526,"etto":527,"ĠU":528,"Ġpos":529,"ria":530,"sso":531,"Ġmi":532,"Ġpu":533,"ggio":534,"ĠH":535,"Ġha":536,"Ġter":537,"fica":538,"Ġven":539,"Ġar":540,"Ġsuo":541,"Ġimp":542,"ĠIn":543,"Ġco":544,"sp":545,"um":546,"at":547,"Ġav":548,"per":549,"Ġess":550,"tato":551,"Ã¬":552,"zz":553,"Ġcui":554,"ana":555,"uto":556,"ur":557,"rio":558,"zion":559,"are":560,"gno":561,"sta":562,"Ġsc":563,"Ġcor":564,"etti":565,").":566,"Ġparte":567,"Ġno":568,"ele":569,"Ġna":570,"vano":571,"Ġera":572,"Ġr":573,"Ġcol":574,"bili":575,"ces":576,"ĠO":577,"Ġgen":578,"rono":579,"res":580,"Ġ20":581,"Ġinter":582,"ĠJ":583,"tare":584,"gna":585,"Ġed":586,"Ġdalla":587,"Ġ3":588,"anno":589,"Ġdegli":590,"endo":591,"Ġessere":592,"ord":593,"gra":594,"zia":595,"Ġdue":596,"bile":597,"Ġmol":598,"man":599,"tore":600,"Ġsua":601,"Ġba":602,"pe":603,"Qu":604,"gni":605,"ze":606,"lare":607,"colo":608,"Ġprop":609,"menti":610,"ĠK":611,"Ġpr":612,"lica":613,"olo":614,"Ġinf":615,"ge":616,"Ġapp":617,"tte":618,"Ġpres":619,"glio":620,"ĠLe":621,"mpo":622,"sid":623,"ki":624,"gia":625,"ese":626,"ĠAl":627,"anti":628,"end":629,"Ġprima":630,"esso":631,"tr":632,"Ġmon":633,"tru":634,"Ġanni":635,"glia":636,"Ġti":637,"Ġalle":638,"Ġloro":639,"tati":640,"Â·":641,"ĠCa":642,"Ġvol":643,"inci":644,"ffi":645,"19":646,"ĠMa":647,"Ġai":648,"Ġ18":649,"cu":650,"cco":651,"ing":652,"ĠCom":653,"ĠNel":654,"ba":655,"ppo":656,"Ġste":657,"mma":658,"bbe":659,"Ġmen":660,"Ġquesto":661,"zio":662,"vol":663,"ĠRe":664,"Ġ200":665,"ss":666,"dio":667,"tter":668,"ello":669,"Ġro":670,"Ġsecon":671,"ĠPa":672,"Ġver":673,"mon":674,"Ġ4":675,"Ġgra":676,"bo":677,"Ġat":678,"eli":679,"via":680,"Ġris":681,"ĠCon":682,"Ġgran":683,"Ġto":684,"il":685,"Ġstato":686,"ed":687,"ĠAn":688,"Ġpor":689,"tin":690,"sse":691,"lan":692,"essi":693,"elli":694,"ela":695,"almente":696,"erra":697,"cci":698,"Ġaltri":699,"chÃ©":700,"Ġchi":701,"pera":702,"Ġnell":703,"cca":704,"Ġnuo":705,"Ġindi":706,"ĠQu":707,"Ġdopo":708,"ante":709,"sis":710,"Ġalc":711,"ura":712,"iki":713,"Ġgu":714,"for":715,"ette":716,"ista":717,"uro":718,"mm":719,"Ġta":720,"que":721,"cen":722,"Ġ5":723,"enta":724,"Ġpers":725,"Â«":726,"Â»":727,"ĠSi":728,"Ġsia":729,"org":730,"Ġau":731,"sia":732,"tili":733,"titu":734,"Ġ201":735,"etÃł":736,"indi":737,"Ġdall":738,"Ġcontro":739,"Ġsolo":740,"etta":741,"ella":742,"Ġsa":743,"zo":744,"ad":745,"Ġforma":746,"Ġacc":747,"Il":748,"Ġen":749,"ĠPor":750,"Ġprinci":751,"Ġspe":752,"Ġer":753,"Ġtro":754,"Ġese":755,"ttÃł":756,"EN":757,"anto":758,"ome":759,"Ġcen":760,"gui":761,"inis":762,"pre":763,"ĠÂ«":764,"onda":765,"tiva":766,"Ġnum":767,"chia":768,"Ġuno":769,"iste":770,"II":771,"and":772,"Ġsos":773,"Â°":774,"Ġave":775,"hia":776,"cor":777,"Ġnei":778,"une":779,"mbre":780,"tante":781,"rante":782,"am":783,"Ġcir":784,"ssa":785,"ĠpuÃ²":786,"Ġpoi":787,"sto":788,"ena":789,"Ġconf":790,"Ġpoli":791,"La":792,"zionale":793,"Ġfra":794,"ron":795,"uta":796,"ĠcittÃł":797,"Ġmar":798,"Ġhanno":799,"Ġfe":800,"Ġvo":801,"ĠSe":802,"cri":803,"Ġdiver":804,"ber":805,"ane":806,"Ġpas":807,"Ġcar":808,"ĠX":809,"Ġsulla":810,"Ġos":811,"ĠMi":812,"Ġsucc":813,"ĠMar":814,"mpi":815,"Ġstori":816,"llo":817,"Ġsotto":818,"ĠSan":819,"Ġmaggio":820,"ffer":821,"cio":822,"Ġnelle":823,"rig":824,"usa":825,"Ġviene":826,"ess":827,"Ġ6":828,"Ġdove":829,"Ġvari":830,"Ġparti":831,"Ġcre":832,"Ġmili":833,"gn":834,"Ġbi":835,"zzo":836,"Ġsemp":837,"ren":838,"ton":839,"tiche":840,"20":841,"Ġrapp":842,"gono":843,"ĠGi":844,"tiene":845,"Ġini":846,"inter":847,"Ġuni":848,"Ġpubb":849,"Ġtras":850,"000":851,"esti":852,"Ġmolto":853,"Ġmentre":854,"ĠPortale":855,"ser":856,"Ġprimo":857,"Ġrisp":858,"In":859,"Ġsecolo":860,"Ġgo":861,"ĠNa":862,"esa":863,"mpio":864,"media":865,"Ġstu":866,"Ġcri":867,"Ġprincip":868,"Ġsiste":869,"tivo":870,"th":871,"Ġquesta":872,"ttura":873,"Ġgenera":874,"atti":875,"ĠUni":876,"Ġtempo":877,"Ġ199":878,"Ġdai":879,"Ġerano":880,"ck":881,"Ġman":882,"Ġdes":883,"ĠFran":884,"Ġchia":885,"ccia":886,"esta":887,"Ġdire":888,"17":889,"Ġva":890,"Ġpopo":891,"ĠWiki":892,"Ġdiven":893,"cora":894,"Ġgior":895,"Ġutili":896,"mina":897,"Ġquando":898,"omi":899,"ĠPer":900,"azione":901,"Ġ7":902,"cer":903,"ttu":904,"Ġmor":905,"Ġesp":906,"\",":907,"osto":908,"Ġel":909,"gen":910,"gione":911,"Ġquali":912,"Ġvenne":913,"Ġcer":914,"Ġstesso":915,"Ġlun":916,"Ġquale":917,"ĠDi":918,"lmente":919,"Ġfino":920,"Ġpun":921,"ard":922,"18":923,"tici":924,"Ġsca":925,"ha":926,"oma":927,"sioni":928,"lari":929,"pra":930,"ĠSa":931,"Ġsecondo":932,"qui":933,"Ġac":934,"tere":935,"Ġtutti":936,"Ġcan":937,"Ġlavo":938,"anza":939,"Ġitali":940,"Ġdello":941,"Ġquindi":942,"Ġquella":943,"Ġtre":944,"Ġser":945,"Ġgiu":946,"Ġ17":947,"Ġ9":948,"ato":949,"uti":950,"Ġpartico":951,"omen":952,"Ġguerra":953,"ĠVi":954,"elle":955,"tÃ²":956,"elo":957,"Ġcomple":958,"pu":959,"der":960,"ĠPi":961,"denti":962,"talia":963,"Ġquello":964,"Ġquesti":965,"Ġ15":966,"rie":967,"Ġsuper":968,"tina":969,"Ġcontiene":970,"Ġten":971,"Ġsegui":972,"ĠSo":973,"tor":974,"Ġscri":975,"Ġstra":976,"ggiun":977,"Ġmis":978,"Ġabb":979,"ĠAr":980,"Ġfun":981,"Ġdef":982,"Ġaveva":983,"etro":984,"rica":985,"Ġsvi":986,"ĠcosÃ¬":987,"Ġfurono":988,"Ġposs":989,"Ġfatto":990,"ciali":991,"tanti":992,"Ġlu":993,"Ġmodo":994,"Ġnumero":995,"Ġsco":996,"Ġgover":997,"Ġpen":998,"des":999,"Ġtratta":1000,"clu":1001,"orma":1002,"sizione":1003,"Ġcara":1004,"Ġprog":1005,"Ġele":1006,"bilitÃł":1007,"Ġam":1008,"\".":1009,"Ġspa":1010,"ggia":1011,"Ġprodu":1012,"iov":1013,"Ġogni":1014,"tino":1015,"Ġdurante":1016,"bre":1017,"sie":1018,"ĠNe":1019,"mis":1020,"dica":1021,"mos":1022,"omo":1023,"Ġsvilu":1024,"arti":1025,"tamente":1026,"Ġsopra":1027,"val":1028,"ingu":1029,"mer":1030,"Ġgrande":1031,"Ġlib":1032,"Ġsuoi":1033,"Ġfine":1034,"mmag":1035,"Ġsin":1036,"Ġcaratter":1037,"Ġvita":1038,"Ġsistema":1039,"tion":1040,"Ġ8":1041,"pri":1042,"Ġimpor":1043,"ĠCommon":1044,"ĠSu":1045,"ĠLi":1046,"ciale":1047,"fo":1048,"Ġalcuni":1049,"smo":1050,"ĠRo":1051,"Ġesempio":1052,"zzazione":1053,"Ġconsid":1054,"Ġsol":1055,"use":1056,"feri":1057,"Ġperio":1058,"vitÃł":1059,"Ġcla":1060,"ĠDe":1061,"orto":1062,"ĠRi":1063,"ĠCommons":1064,"cie":1065,"Ġstru":1066,"10":1067,"Ġ10":1068,"vamente":1069,"lazione":1070,"Ġallo":1071,"Ġcostitu":1072,"Nel":1073,"ĠBa":1074,"Ġquanto":1075,"Ġcirca":1076,"Ġancora":1077,"Ġnome":1078,"den":1079,"ose":1080,"ulti":1081,"Ġaltre":1082,"Ġdalle":1083,"15":1084,"zzato":1085,"Ġ16":1086,"ĠFi":1087,"dere":1088,"erie":1089,"sitÃł":1090,"Ġstata":1091,"Ġpossi":1092,"ltre":1093,"ĠMe":1094,"rato":1095,"citÃł":1096,"Ġvia":1097,"cono":1098,"cchi":1099,"Ġterm":1100,"Ġz":1101,"Ġmondo":1102,"ĠPo":1103,"Ġrappres":1104,"tazione":1105,"imp":1106,"mato":1107,"lio":1108,"Ġopera":1109,"Ġgru":1110,"tano":1111,"ĠCi":1112,"razione":1113,"Ġtutto":1114,"Ġsci":1115,"tten":1116,"ĠCar":1117,"Ġpossono":1118,"teria":1119,"Ġsuccessi":1120,"fa":1121,"esto":1122,"osa":1123,"trib":1124,"Ġve":1125,"arono":1126,"Ġvolta":1127,"Ġsempre":1128,"Ġfonda":1129,"Ġatti":1130,"onale":1131,"Ġqual":1132,"oltre":1133,"usi":1134,"Ġlingu":1135,"Ġverso":1136,"Ġfran":1137,"Ġof":1138,"16":1139,"anta":1140,"Ġcausa":1141,"rico":1142,"Ġorig":1143,"eria":1144,"Ġseguito":1145,"ĠZ":1146,"iore":1147,"âĢ":1148,"onte":1149,"lla":1150,"Ġattra":1151,"Ġru":1152,"Ġfos":1153,"ario":1154,"Ġ194":1155,"Ġfo":1156,"Ġ198":1157,"torio":1158,"12":1159,"Ġdov":1160,"Ġsenza":1161,"Ġcontra":1162,"ghi":1163,"tenza":1164,"dre":1165,"aria":1166,"osta":1167,"Ġrip":1168,"verso":1169,"Ġseconda":1170,"gh":1171,"vin":1172,"Ġcomuni":1173,"Ġterri":1174,"Ġdefini":1175,"ell":1176,"ÃĪ":1177,"Ġtrova":1178,"organi":1179,"anni":1180,"Ġstati":1181,"unque":1182,"ĠperchÃ©":1183,"vece":1184,"tari":1185,"Ġcapi":1186,"Ġautori":1187,"Ġcons":1188,"Ġcontin":1189,"Ġlegg":1190,"ĠLo":1191,"dente":1192,"tata":1193,"Ġrela":1194,"ĠY":1195,"teri":1196,"Ġcaso":1197,"cra":1198,"Ġul":1199,"lia":1200,"sato":1201,"Ġ12":1202,"serva":1203,"Ġsen":1204,"dizione":1205,"Ġcal":1206,"14":1207,"ĠDa":1208,"erci":1209,"tivi":1210,"Ġperiodo":1211,"ĠCo":1212,"st":1213,"cro":1214,"Ġdeci":1215,"Ġ197":1216,"Ġgenerale":1217,"rsi":1218,"una":1219,"zie":1220,"zionali":1221,"Ġ14":1222,"Ġimmag":1223,"50":1224,"tolo":1225,"Ġinvece":1226,"Ġnatura":1227,"Ġag":1228,"tanza":1229,"lore":1230,"omina":1231,"cato":1232,"bra":1233,"Ġeff":1234,"Ġmedi":1235,"Ġconsidera":1236,"qua":1237,"Ġcul":1238,"Ġtutta":1239,"Ġnegli":1240,"au":1241,"13":1242,"gio":1243,"cch":1244,"ĠRa":1245,"ĠgiÃł":1246,"ĠDo":1247,"uzione":1248,"glie":1249,"ll":1250,"vis":1251,"essa":1252,"Ġinizi":1253,"ĠCh":1254,"Ġreali":1255,"ggior":1256,"Ġmolti":1257,"Ġbase":1258,"ure":1259,"fer":1260,"Ġprote":1261,"ppe":1262,"Ġparticolare":1263,"Ġoltre":1264,"est":1265,"gre":1266,"Ġis":1267,"Ġass":1268,"Ġfar":1269,"isce":1270,"Ġaff":1271,"Ġconos":1272,"Ġagli":1273,"orta":1274,"Ġ196":1275,"Ġtipo":1276,"enze":1277,"ustri":1278,"tanto":1279,"Ġconte":1280,"Ġtec":1281,"Ġrisul":1282,"sero":1283,"data":1284,"inistra":1285,"esi":1286,"Ġdice":1287,"ĠII":1288,"ttore":1289,"Ġpubblica":1290,"ang":1291,"Ġfami":1292,"cita":1293,"vere":1294,"ac":1295,"mano":1296,"30":1297,"zzi":1298,"ĠMo":1299,"gis":1300,"stitu":1301,"eter":1302,"ir":1303,"bbero":1304,"ĠRoma":1305,"Ġspesso":1306,"cali":1307,"cano":1308,"Ġpersone":1309,"poli":1310,"ble":1311,"sieme":1312,"Ġben":1313,"Ġproprio":1314,"Ġsette":1315,"Ġgoverno":1316,"ghe":1317,"met":1318,"Ġsue":1319,"Ġcolle":1320,"Ġotten":1321,"Ġtor":1322,"Ġsare":1323,"Ġsti":1324,"ĠStati":1325,"ĠChi":1326,"ĠLu":1327,"Ġdiffer":1328,"ture":1329,"Ġprof":1330,"Ġservi":1331,"lano":1332,"forma":1333,"ĠPro":1334,"Ġspi":1335,"fia":1336,"ond":1337,"Ġand":1338,"Ġmani":1339,"Ġserie":1340,"ccu":1341,"Ġfin":1342,"tando":1343,"ĠUn":1344,"Ġnuovo":1345,"Ġotto":1346,"ordina":1347,"Ġsal":1348,"Ġga":1349,"ico":1350,"urope":1351,"Ġneces":1352,"zzata":1353,"oso":1354,"ati":1355,"cre":1356,"ĠBo":1357,"ffici":1358,"Ġfil":1359,"esse":1360,"Ġqua":1361,"Ġprodo":1362,"Ġpunto":1363,"ismo":1364,"Ġ0":1365,"rebbe":1366,"ei":1367,"pend":1368,"eo":1369,"logi":1370,"Ġelet":1371,"Ġraggiun":1372,"tero":1373,"inale":1374,"ĠCor":1375,"tt":1376,"Ġimmagini":1377,"ĠGu":1378,"87":1379,"rare":1380,"Ġ13":1381,"Ġprimi":1382,"uso":1383,"Ġteo":1384,"Ġstoria":1385,"ĠTra":1386,"tive":1387,"Ġtri":1388,"22":1389,"Ġscon":1390,"Ġconse":1391,"Ġsud":1392,"mata":1393,"pubb":1394,"onia":1395,"Ġreli":1396,"Ġbas":1397,"Ġcin":1398,"Ġtale":1399,"ĠDu":1400,"ssione":1401,"cesso":1402,"Ġqueste":1403,"Ġricon":1404,"ega":1405,"Ġclassi":1406,"Ġentra":1407,"Ġtutte":1408,"all":1409,"Ġprece":1410,"Ġletter":1411,"ste":1412,"Ġorgani":1413,"Ġline":1414,"ĠNo":1415,"be":1416,"uno":1417,"Ġnu":1418,"Ġalcune":1419,"Ġas":1420,"ĠperÃ²":1421,"Ġpubbli":1422,"Ġtedes":1423,"Ġdiri":1424,"bito":1425,"com":1426,"Ġlingua":1427,"33":1428,"Ġing":1429,"Ġmorte":1430,"mica":1431,"ĠIS":1432,"ĠautoritÃł":1433,"Ġrispetto":1434,"ea":1435,"Ġfre":1436,"ka":1437,"Ġtermine":1438,"Ġattraverso":1439,"ho":1440,"esco":1441,"Ġconten":1442,"Ġmateria":1443,"Ġfer":1444,"ostra":1445,"trui":1446,"Ġassi":1447,"Ġsegu":1448,"ĠItalia":1449,"Ġdiff":1450,"sola":1451,"ĠÃĪ":1452,"ume":1453,"Ġfile":1454,"ppi":1455,"min":1456,"Ġliv":1457,"Ġauto":1458,"cce":1459,"11":1460,"Ġgio":1461,"dato":1462,"Ġlega":1463,"Ġdiversi":1464,"Ġthe":1465,"col":1466,"nero":1467,"Ġopp":1468,"ende":1469,"Ġgruppo":1470,"attro":1471,"ĠStato":1472,"posi":1473,"Ġbu":1474,"Ġsigni":1475,"loso":1476,"logia":1477,"gioni":1478,"Ġinfatti":1479,"son":1480,"ĠPre":1481,"Ġsoli":1482,"ĠJo":1483,"mpa":1484,"Ġmod":1485,"Ġden":1486,"ĠGran":1487,"Ġarri":1488,"dine":1489,"Ġmaggior":1490,"ppa":1491,"meri":1492,"Ġmeno":1493,"Ġvengono":1494,"omento":1495,"mana":1496,"arsi":1497,"versa":1498,"Ġnove":1499,"Ġsull":1500,"Ġgiugno":1501,"rale":1502,"sh":1503,"Ġpicco":1504,"Ġasso":1505,"Ġcomune":1506,"ttutto":1507,"Ġanno":1508,"interno":1509,"Ġecon":1510,"Ġaver":1511,"Ġcentro":1512,"truzione":1513,"Ġproble":1514,"Ġsignifica":1515,"Ġesis":1516,"cle":1517,"Ġanti":1518,"ĠTu":1519,"ori":1520,"cina":1521,"Ġsan":1522,"Ġpes":1523,"Ġlungo":1524,"ĠTi":1525,"ĠMon":1526,"40":1527,"cietÃł":1528,"Ġov":1529,"Ġgrandi":1530,"Ġcontinu":1531,"simo":1532,"Ġricer":1533,"alle":1534,"iamo":1535,"Äģ":1536,"rata":1537,"Ġfilm":1538,"grafi":1539,"ass":1540,"cale":1541,"Ġpra":1542,"ĠGiov":1543,"sidente":1544,"ĠUniti":1545,"anda":1546,"Ġinoltre":1547,"mani":1548,"Ġdon":1549,"Al":1550,"gne":1551,"ĠGer":1552,"An":1553,"tuale":1554,"rano":1555,"dizioni":1556,"Ġarti":1557,"Le":1558,"Ġspecie":1559,"Ġgre":1560,"trale":1561,"Ġlimi":1562,"vole":1563,"Ġcivi":1564,"ĠciÃ²":1565,"uri":1566,"ute":1567,"vero":1568,"cese":1569,"Ġcorpo":1570,"Ġinterna":1571,"iori":1572,"Ġdagli":1573,"Ġpara":1574,"Ġ195":1575,"mico":1576,"Ġuffi":1577,"Ġabi":1578,"rre":1579,"opera":1580,"Ġulti":1581,"zzare":1582,"ty":1583,"Ġnas":1584,"Ġdisp":1585,"Ġsoprattutto":1586,"Ġsui":1587,"este":1588,"Ġpe":1589,"eno":1590,"ziona":1591,"Ġsitu":1592,"Ġusa":1593,"Ġrivol":1594,"Ġgrado":1595,"Ġinsieme":1596,"Ġus":1597,"Ġlas":1598,"ĠGli":1599,"Ġappar":1600,"Ġstessa":1601,"diale":1602,"omini":1603,"Ġquattro":1604,"Ġcultura":1605,"Ġop":1606,"Ġpropri":1607,"Ġsettembre":1608,"Uni":1609,"Ġrappresenta":1610,"Ġcompa":1611,"Ġpossibile":1612,"naio":1613,"ĠEn":1614,"Ġtemp":1615,"ĠWikimedia":1616,"zzati":1617,"Ġrin":1618,"edi":1619,"lice":1620,"veni":1621,"terna":1622,"Ġquelle":1623,"Wiki":1624,"ziale":1625,"Ġsulle":1626,"cente":1627,"mbia":1628,"ĠThe":1629,"Ġdicembre":1630,"Ġpersona":1631,"Ġlavoro":1632,"ts":1633,"Ġpolitica":1634,"Ġpresso":1635,"Ġproduzione":1636,"Ġmarzo":1637,"Ġani":1638,"cip":1639,"Ġsor":1640,"lato":1641,"Ġdiverse":1642,"vato":1643,"ide":1644,"ĠBer":1645,"Ġdivi":1646,"80":1647,"BN":1648,"Ġw":1649,"Ġpote":1650,"ĠBN":1651,"ĠHa":1652,"Ġluglio":1653,"coli":1654,"Ġrego":1655,"Ġmemb":1656,"Ġgennaio":1657,"Ġsarebbe":1658,"Ġquasi":1659,"ĠBi":1660,"pubblica":1661,"prile":1662,"25":1663,"Ġluo":1664,"trice":1665,"..":1666,"Ġcampo":1667,"75":1668,"Ġeconomi":1669,"Ġmomento":1670,"tario":1671,"ccupa":1672,"Ġnuova":1673,"Ġcorso":1674,"Ġfosse":1675,"Ġaltro":1676,"Ġitaliano":1677,"ĠGa":1678,"ĠCos":1679,"difica":1680,"Ġmusi":1681,"Ġderi":1682,"Ġgia":1683,"duzione":1684,"Ġfrancese":1685,"Ġtipi":1686,"Ġoggi":1687,"Ġmai":1688,"ardo":1689,"mia":1690,"lar":1691,"Ġmet":1692,"Ġterritorio":1693,"enda":1694,"trollo":1695,"Ġmaggiore":1696,"Ġeurope":1697,"Ġpassa":1698,"Ġnovembre":1699,"Italia":1700,"60":1701,"onti":1702,"Ġporta":1703,"ccio":1704,"Ġstan":1705,"endere":1706,"Ġconta":1707,"care":1708,"Ġsosten":1709,"Ġstudio":1710,"Ġdeter":1711,"Ġpia":1712,"ĠFrancia":1713,"Ġvolte":1714,"Ġinforma":1715,"cos":1716,"Ġdif":1717,"Ġpresenta":1718,"Ġfamiglia":1719,"ĠDio":1720,"Ġbri":1721,"Ġdom":1722,"spon":1723,"21":1724,"lori":1725,"Ġcomb":1726,"ĠsocietÃł":1727,"ĠPar":1728,"Ġori":1729,"ug":1730,"Ġcel":1731,"Ġvis":1732,"Ġbo":1733,"Ġvelo":1734,"Ġdescri":1735,"Ġcostitui":1736,".,":1737,"Ġgiorno":1738,"ttamente":1739,"Ġ/":1740,"Ġfare":1741,"Ġriconos":1742,"torno":1743,"Ġevi":1744,"23":1745,"Ġcostrui":1746,"ĠNon":1747,"Ġsviluppo":1748,"Ġrice":1749,"bbra":1750,"dici":1751,"Ġfisi":1752,"ĠFa":1753,"78":1754,"Ġ193":1755,"Ġtele":1756,"ĠGiovanni":1757,"ph":1758,"arda":1759,"condo":1760,"tono":1761,"Ġnecessa":1762,"stica":1763,"Ġriv":1764,"uropa":1765,"Ġsf":1766,"Ġappro":1767,"Ġamm":1768,"Ġfiloso":1769,"Ġrichi":1770,"Ġquelli":1771,"Ġrius":1772,"fici":1773,"Ġrigu":1774,"ĠRegno":1775,"Ġavrebbe":1776,"Ġricor":1777,"Ġpopolazione":1778,"90":1779,"ĠTa":1780,"poca":1781,"Ġingle":1782,"Â».":1783,"tar":1784,");":1785,"Wikimedia":1786,"Ġlivello":1787,"Ġecc":1788,"Ġforte":1789,"Ġlui":1790,"Ġpropria":1791,"ĠCol":1792,"ordine":1793,"deva":1794,"Ġgiorni":1795,"vento":1796,"onali":1797,"Ġmiglio":1798,"quad":1799,"Ġmassi":1800,"Ġcommer":1801,"Ġsuccesso":1802,"ko":1803,"cla":1804,"Ġtecni":1805,"cÃ²":1806,"toria":1807,"Ġstruttura":1808,"vie":1809,"vata":1810,"Ġpartire":1811,"Ġmoder":1812,"lin":1813,"ann":1814,"mbi":1815,"usti":1816,"mu":1817,"ardi":1818,"dini":1819,"24":1820,"Ġdip":1821,"bbraio":1822,"Ġsov":1823,"meno":1824,"tate":1825,"cesi":1826,"ĠGo":1827,"Ġlegge":1828,"ustria":1829,"las":1830,"26":1831,"Ġmeta":1832,"cendo":1833,"Ġricerca":1834,"ĠMilano":1835,"tazioni":1836,"ficazione":1837,"Ġottobre":1838,"Ġambi":1839,"Ġprovin":1840,"Ġcro":1841,"Ġbatta":1842,"Ġpoten":1843,"Ġann":1844,"ĠCas":1845,"Ġforze":1846,"Ġnord":1847,"Ġavere":1848,"27":1849,"Ġfron":1850,"Ġparo":1851,"200":1852,"Ġins":1853,"VI":1854,"Ġcosa":1855,"ĠQuesto":1856,"Ġfebbraio":1857,"Ġgrazie":1858,"ata":1859,"Ġvisi":1860,"Ġprincipale":1861,"Ġmondiale":1862,"Ġdati":1863,"ercito":1864,"88":1865,"Ġquanti":1866,"Ġsvol":1867,"ĠTo":1868,"Ġposto":1869,"Ġmer":1870,"Ġimpi":1871,"Ġveri":1872,"ya":1873,"omia":1874,"ergia":1875,"Ġaprile":1876,"Ġsimi":1877,"altra":1878,"ld":1879,"lus":1880,"Ġk":1881,"Ġcio":1882,"CC":1883,"Ġdistin":1884,"Ġpotere":1885,"Ġprocesso":1886,"les":1887,"cino":1888,"Ġinten":1889,"camente":1890,"tesi":1891,"ort":1892,"Se":1893,"Ġdimen":1894,"bilmente":1895,"29":1896,"Ġcaratteris":1897,"car":1898,"ĠISBN":1899,"ĠControllo":1900,"ĠMaria":1901,"Ġtuttavia":1902,"mar":1903,"Ġide":1904,"Ġgui":1905,"cciden":1906,"gere":1907,"Ġgiov":1908,"Ġcompi":1909,"Ġmovi":1910,"Ġpresenza":1911,"Ġ30":1912,"Ġmilitare":1913,"ĠCri":1914,"cere":1915,"ologi":1916,"Ġpoco":1917,"Per":1918,"Ġveni":1919,"Ġcampi":1920,"dotta":1921,"Ġnazionale":1922,"ĠAd":1923,"moni":1924,"ĠNi":1925,"dati":1926,"gue":1927,"Ġimportante":1928,"venti":1929,"land":1930,"ĠVer":1931,"sistenza":1932,"mici":1933,"DE":1934,"Ġmolte":1935,"ciato":1936,"Ġuomini":1937,"lli":1938,"dro":1939,"Ġgenere":1940,"Ġprogra":1941,"Ġcres":1942,"Ġ'":1943,"ggetti":1944,"Ġcitta":1945,"Ġproba":1946,"mane":1947,"ĠDopo":1948,"Ġvennero":1949,"eni":1950,"rati":1951,"Ġ[":1952,"Ġriferi":1953,"Ġind":1954,"Ġpotre":1955,"Ġavevano":1956,"versitÃł":1957,"bur":1958,"ĠRepubblica":1959,"Ar":1960,"Ġedi":1961,"Ġatta":1962,"altÃł":1963,"Ġdeve":1964,"ĠGia":1965,"dis":1966,"rÃł":1967,"ccol":1968,"Ġcaratteri":1969,"entale":1970,"Ġaffer":1971,"app":1972,"Ġpresenti":1973,"Ġagosto":1974,"ggetto":1975,"posizione":1976,"ttori":1977,"ĠcioÃ¨":1978,"Ġdimos":1979,"Ġaere":1980,"Ġban":1981,"tanni":1982,"66":1983,"Ġcapa":1984,"Ġrima":1985,"ry":1986,"28":1987,"Ġor":1988,"Ġfavo":1989,"Ġbat":1990,"ĠGre":1991,"lina":1992,"III":1993,"Ġfunzione":1994,"ĠAle":1995,"vare":1996,"Ġmilioni":1997,"Ġbene":1998,"Ġrappresen":1999,"Ġposi":2000,"mati":2001,"ĠCarlo":2002,"Ġindivi":2003,"iscono":2004,"cenza":2005,"Ġval":2006,"Ġincon":2007,"pol":2008,"lici":2009,"Ġmedia":2010,"ĠTe":2011,"ger":2012,"45":2013,"ordo":2014,"Ġnello":2015,"ĠNew":2016,"ultimo":2017,"ud":2018,"cchia":2019,"hn":2020,"ND":2021,"ĠBar":2022,"Ġallora":2023,"ĠIII":2024,"ĠMan":2025,"ostante":2026,"matica":2027,"Ġforza":2028,"ĠrealtÃł":2029,"Ġeffetti":2030,"Ġcapo":2031,"Ġsenso":2032,"Ġcura":2033,"ĠOr":2034,"Ġstate":2035,"70":2036,"mania":2037,"Ġ25":2038,"dice":2039,"orti":2040,"Ġruolo":2041,"inizio":2042,"Ġparla":2043,"Ġprincipali":2044,"par":2045,"Ġistitu":2046,"Ġsostitu":2047,"Ġluogo":2048,"Ġbre":2049,"ĠmetÃł":2050,"fico":2051,"versi":2052,"onato":2053,"ate":2054,"Ġsingo":2055,"Ġanima":2056,"Ġora":2057,"Ġebbe":2058,"Ġdichia":2059,"Ġmeri":2060,"Ġcasa":2061,"Ġtesti":2062,"Ġlocali":2063,"Ġstudi":2064,"Ġvin":2065,"Ġfiglio":2066,"Ġet":2067,"Ġinse":2068,"Ġmin":2069,"Ġset":2070,"mite":2071,"Ġcambia":2072,"Ġcontrollo":2073,"Ġpresente":2074,"vono":2075,"Ġconsegu":2076,"ris":2077,"isti":2078,"ĠChiesa":2079,"pedia":2080,"Ġcorri":2081,"Ġscuo":2082,"Ġavven":2083,"line":2084,"Ġtrasp":2085,"vali":2086,"Ġinizia":2087,"ede":2088,"Ġterra":2089,"zzate":2090,"cazione":2091,"Ġdedica":2092,"Ġdetto":2093,"acc":2094,"altro":2095,"Ġasse":2096,"usto":2097,"ĠattivitÃł":2098,"Ġmanten":2099,"Ġstabili":2100,"Ġdivenne":2101,"Ġnote":2102,"Ġmino":2103,"mmi":2104,"cin":2105,"Ġscel":2106,"ke":2107,"Ġcristi":2108,"Ġcellu":2109,"Ġsvilupp":2110,"tur":2111,"Ġspeci":2112,"Ġdato":2113,"Ġvalore":2114,"Ġconserva":2115,"pagna":2116,"Ġnos":2117,"ï»":2118,"chio":2119,"tribui":2120,"uomo":2121,"Ġcasi":2122,"Ġtran":2123,"95":2124,"Ġtitolo":2125,"Ġcolla":2126,"Ġlibera":2127,"ossi":2128,"Ġfrequ":2129,"ĠTor":2130,"ĠUna":2131,"cchio":2132,"CCN":2133,"Ġaggiun":2134,"Ġmostra":2135,"Ġposizione":2136,"Ġlinea":2137,"Ġbio":2138,"pro":2139,"quis":2140,"av":2141,"Ġtempera":2142,"Ġcentrale":2143,"Ġregione":2144,"Ġasp":2145,"isola":2146,"Or":2147,"zionario":2148,"wa":2149,"Imp":2150,"Ġopere":2151,"cani":2152,"Ġspazio":2153,"85":2154,"Ġpaese":2155,"Ġbritanni":2156,"Ġzona":2157,"ï»¿":2158,"Ġdiritto":2159,"Ġon":2160,"Ġperm":2161,"tello":2162,"Ġservizio":2163,"Ġsegna":2164,"oro":2165,"Ġsede":2166,"gina":2167,"su":2168,"ĠRom":2169,"bri":2170,"Ġinte":2171,"Ġdetermina":2172,"Ġnucle":2173,"Ġali":2174,"Ġni":2175,"Ġminis":2176,"gon":2177,"Ġcine":2178,"ork":2179,"Ġpiano":2180,"Ġdimostra":2181,"Ġcomunque":2182,"Ma":2183,"Ġidenti":2184,"Con":2185,"alla":2186,"Ġconc":2187,"visi":2188,"ĠHo":2189,"Ġsicu":2190,"Ġteoria":2191,"Ġsemplice":2192,"inf":2193,"cche":2194,"Ġpreci":2195,"Ġinglese":2196,"171":2197,"Ġinclu":2198,"HE":2199,"onica":2200,"Ġintro":2201,"ĠVene":2202,"ppia":2203,"area":2204,"987":2205,"Ġimportanti":2206,"Ġ24":2207,"Ġvaria":2208,"cola":2209,"Ġmas":2210,"Ġbattaglia":2211,"Ġvoci":2212,"entemente":2213,"tana":2214,"ut":2215,"mentale":2216,"Ġaffi":2217,"eratore":2218,"Ġracc":2219,"esercito":2220,"Ġpratica":2221,"Ġmisura":2222,"Ġacce":2223,"Ġlan":2224,"dono":2225,"Ġindica":2226,"Ġsub":2227,"vio":2228,"cento":2229,"Ġrif":2230,"mentare":2231,"ly":2232,"ania":2233,"acqua":2234,"Ġmeto":2235,"Ġpresidente":2236,"Ġtru":2237,"Ġare":2238,"Ġvio":2239,"Ġgiun":2240,"it":2241,"telli":2242,".Â»":2243,"Ġâ":2244,"ler":2245,"dare":2246,"Ġchiesa":2247,"Ã¡":2248,"more":2249,"Ġvista":2250,"Ġstre":2251,"Ġcorr":2252,"44":2253,"rus":2254,"Ġcollega":2255,"ciÃ²":2256,"litÃł":2257,"tivamente":2258,"gine":2259,"Ġtradi":2260,"5171":2261,"Ġsupp":2262,"bu":2263,"mocra":2264,"Ġtramite":2265,"ĠFor":2266,"Ġapplica":2267,"Un":2268,"35":2269,"98700":2270,"dita":2271,"ĠQuesta":2272,"Ġaper":2273,"ĠGe":2274,"Ġsuperfi":2275,"epoca":2276,"merica":2277,"Ġavvi":2278,"Ġquest":2279,"Ġmecc":2280,"ĠGND":2281,"ttavia":2282,"ĠGermania":2283,"Ġfigu":2284,"Ġitaliana":2285,"missione":2286,"cana":2287,"Ġgiorna":2288,"Ġregi":2289,"ettore":2290,"esp":2291,"Ġsquad":2292,"Ġrus":2293,"Ġregis":2294,"Ġsar":2295,"tuali":2296,"ica":2297,"ttan":2298,"chite":2299,"pr":2300,"Ġdocu":2301,"Ã¼":2302,"ong":2303,"escovo":2304,"ja":2305,"osti":2306,"anna":2307,"ĠFrances":2308,"Ġcli":2309,"Ġelementi":2310,"mbo":2311,"Ġcinque":2312,"ĠPri":2313,"sol":2314,"Ġluce":2315,"omb":2316,"Ġho":2317,"ĠvelocitÃł":2318,"Ġequi":2319,"ĠproprietÃł":2320,"Ġoccupa":2321,"Ġsemb":2322,"tendo":2323,"Ġscienti":2324,"dotto":2325,"AF":2326,"ĠGra":2327,"ĠTer":2328,"Ġprogetto":2329,"assi":2330,"alli":2331,"Ġosserva":2332,"Ġinterpre":2333,"tente":2334,"Ġocciden":2335,"Ġcompre":2336,"ĠWil":2337,"Ġdata":2338,"Ġprogramma":2339,"ĠJa":2340,"ĠRus":2341,"voli":2342,"cando":2343,"denza":2344,"tture":2345,"Ġsociali":2346,"luenza":2347,"Ġfece":2348,"Ġucci":2349,"âĢ²":2350,"Ġfronte":2351,"ĠCla":2352,"Ġcele":2353,"Ġgesti":2354,"ĠpoichÃ©":2355,"Ġinfer":2356,"Ġmano":2357,"ers":2358,"Ġconfer":2359,"ĠIs":2360,"ĠParti":2361,"vati":2362,"ĠFu":2363,"Ġqui":2364,"Ġesa":2365,"Ġpadre":2366,"ĠÎ":2367,"Ġlettera":2368,"Ġbian":2369,"Ġbamb":2370,"Ġtal":2371,"Ġnomina":2372,"ĠWikipedia":2373,"Ġfen":2374,"eta":2375,"tini":2376,"Ġprogetti":2377,"ĠcomunitÃł":2378,"Ġfase":2379,"ĠSta":2380,"ĠJohn":2381,"Ġdia":2382,"ĠTh":2383,"Ġtar":2384,"Âª":2385,"Ġqualche":2386,"edera":2387,"Ġvarie":2388,"grafia":2389,"Ġgruppi":2390,"Ġorigine":2391,"Ġperi":2392,"Ġdetta":2393,"arte":2394,"corso":2395,"Ġcatto":2396,"Ġriconosci":2397,"Ġtur":2398,"eva":2399,"pia":2400,"37":2401,"centra":2402,"orld":2403,"tuni":2404,"Ġotti":2405,"99":2406,"Ġ190":2407,"telle":2408,"Ġ11":2409,"ĠNella":2410,"ĠCro":2411,"ĠLCCN":2412,"Ġpaesi":2413,"Ġdonne":2414,"allo":2415,"Ġameri":2416,"ĠSecondo":2417,"Ġegli":2418,"Ġmovimento":2419,"km":2420,"ĠFer":2421,"Ġpubblico":2422,"Ġapparten":2423,"Ġriten":2424,"Ġprecedente":2425,"ranno":2426,"):":2427,"Ġmassa":2428,"Ġtanto":2429,"siglio":2430,"tuniten":2431,"Ġex":2432,"Ġfoto":2433,"Ġpari":2434,"Ġmesi":2435,"cus":2436,"Ġversione":2437,"Ġnorma":2438,"Ġprime":2439,"Ġovvero":2440,"tezza":2441,"Ġstorico":2442,"pen":2443,"Ġfas":2444,"ft":2445,"Ġcondizioni":2446,"FR":2447,"ĠPari":2448,"Ġinformazioni":2449,"sole":2450,"ĠXI":2451,"Ġatto":2452,"Ġfuori":2453,"siste":2454,"Ġmembri":2455,"rezza":2456,"Ġsuperiore":2457,"ĠSch":2458,"Ġprodotto":2459,"ĠSte":2460,"Ġscoper":2461,"Ġconosci":2462,"Ġmanif":2463,"zze":2464,"Ġdina":2465,"tone":2466,"ĠXV":2467,"mio":2468,"Ġ23":2469,"Ġesi":2470,"ĠAltri":2471,"ppone":2472,"Ġcostruzione":2473,"Ġstatuniten":2474,"65":2475,"clo":2476,"Ġliber":2477,"48":2478,"Ġpla":2479,"Ġterritori":2480,"Ġfis":2481,"ote":2482,"Ġregno":2483,"Ġfenomen":2484,"ondo":2485,"Ġved":2486,"orre":2487,"Ġproblema":2488,"fiche":2489,"47":2490,"Ġmezzo":2491,"Ġmodello":2492,"essione":2493,"ulla":2494,"rito":2495,"Ġpolitico":2496,"Ġtruppe":2497,"ĠCal":2498,"Ġconclu":2499,"lie":2500,"Ġbar":2501,"uncia":2502,"Ġsiano":2503,"ag":2504,"ĠPu":2505,"ota":2506,"ettu":2507,"Ġtotale":2508,"Ġfemm":2509,"Ġsociale":2510,"cal":2511,"âĢł":2512,"stico":2513,"ĠSer":2514,"zialmente":2515,"Ġsepa":2516,"ĠCen":2517,"utto":2518,"cipa":2519,"Ġmala":2520,"visione":2521,"Ġultimi":2522,"Ġpol":2523,"ĠcapacitÃł":2524,"ĠDal":2525,"mate":2526,"Ġdiv":2527,"Ġmare":2528,"lazzo":2529,"Ġconfron":2530,"Ġorigina":2531,"ĠGiu":2532,"ĠQ":2533,"Ġindividu":2534,"39":2535,"Ġnavi":2536,"Ġsei":2537,"sc":2538,"Ġ21":2539,"anis":2540,"Ġcu":2541,"ranti":2542,"unto":2543,"Ġness":2544,"Ġforni":2545,"stra":2546,"Ġvide":2547,"Ġcarica":2548,"ĠSanta":2549,"ĠSh":2550,"Ġcomporta":2551,"sidd":2552,"Impero":2553,"terra":2554,"Ġnoti":2555,"ĠWorld":2556,"mera":2557,"ĠSal":2558,"Ġcompren":2559,"Ġtecno":2560,"ĠFrancesco":2561,"Ġfaci":2562,"fe":2563,"Ġore":2564,"ĠPietro":2565,"Ġstagione":2566,"Ġsistemi":2567,"Si":2568,"Ġgener":2569,"Ġesclu":2570,"dina":2571,"ressi":2572,"Ġreligi":2573,"Ġsom":2574,"Ġpatri":2575,"tel":2576,"ziali":2577,".)":2578,"Ġinternazionale":2579,"Ġcapitale":2580,"sci":2581,"ĠsarÃł":2582,"Ġsetti":2583,"Ġproprie":2584,"Ġnuovi":2585,"ĠKa":2586,"Ġsuperficie":2587,"sco":2588,"tella":2589,"oste":2590,"Ġab":2591,"ultima":2592,"dri":2593,"Ġquad":2594,"ĠBe":2595,"centi":2596,"Ġformazione":2597,"Ġpsi":2598,"Ġres":2599,"Ġcosidd":2600,"Ġferro":2601,"ĠMich":2602,"eso":2603,"ĠFo":2604,"lle":2605,"Ġ,":2606,"ĠTuttavia":2607,"Ġge":2608,"umi":2609,"Ġim":2610,"rando":2611,"rÃ²":2612,"Ġessa":2613,"vÃ²":2614,"ficio":2615,"ĠpossibilitÃł":2616,"Ġbasa":2617,"Ġepi":2618,"tenti":2619,"ditÃł":2620,"sili":2621,"auto":2622,"taria":2623,"mare":2624,"ĠAnche":2625,"Ġindipend":2626,"Ġlar":2627,"43":2628,"ind":2629,"bert":2630,"Ġamministra":2631,"ĠPartito":2632,"67":2633,"89":2634,"Ġelettri":2635,"Ġ22":2636,"quista":2637,"enn":2638,"Ġstrada":2639,"Ġutilizzato":2640,"Ġnuove":2641,"Ġcompon":2642,"can":2643,"Ġprovincia":2644,"Ġmodifica":2645,"Ġ100":2646,"uigi":2647,"ĠquantitÃł":2648,"lata":2649,"Ġessi":2650,"Ġdol":2651,"onna":2652,"useppe":2653,"ologia":2654,"Ġeffettu":2655,"Ġcose":2656,"trÃ²":2657,"Ġdio":2658,"Ġalmeno":2659,"Ġsola":2660,"Ġfiume":2661,"Ġoppure":2662,"Ġpensi":2663,"ĠunitÃł":2664,"Ġsconfi":2665,"Ġraccol":2666,"teriore":2667,"cher":2668,"Ġforme":2669,"asse":2670,"Ġnumerosi":2671,"Ġmilitari":2672,"Ġprodotti":2673,"bbene":2674,"Ġchiamato":2675,"Ġospi":2676,"uale":2677,"Ġsenti":2678,"Ġriti":2679,"tonio":2680,"Ġnor":2681,"Ġpensa":2682,"anzi":2683,"eti":2684,"Ġnumeri":2685,"Ġrile":2686,"ĠVal":2687,"Ġmate":2688,"Ġrapporto":2689,"Ġresta":2690,"vate":2691,"Ġacca":2692,"Ġrapi":2693,"Ġproblemi":2694,"monio":2695,"The":2696,"ire":2697,"Ġcaratteristiche":2698,"duto":2699,"Ġtesta":2700,"Ġaccedi":2701,"cialmente":2702,"Ġur":2703,"uttosto":2704,"ins":2705,"Ġ50":2706,"Ġmetri":2707,"ĠIV":2708,"Ġlunghe":2709,"Ġcaccia":2710,"duta":2711,"Ġtedesco":2712,"len":2713,"colare":2714,"frica":2715,"Ġ26":2716,"gazione":2717,"Ġoff":2718,"cb":2719,"Ġcontempo":2720,"Ġpapa":2721,"Ġanimali":2722,"ĠTerra":2723,"Ġriferimento":2724,"unitÃł":2725,"dendo":2726,"49":2727,"mpia":2728,"Ġrifi":2729,"Ġfavore":2730,"miche":2731,"larmente":2732,"gge":2733,"Ġricev":2734,"lino":2735,"Ġlibro":2736,"Ġtali":2737,"Ġbra":2738,"nia":2739,"Ġproveni":2740,"46":2741,"Ġsituazione":2742,"ĠGen":2743,"55":2744,"Ġpartecipa":2745,"ĠBNF":2746,"Ġtrib":2747,"ĠCan":2748,"Ġdimensioni":2749,"ĠBra":2750,"inio":2751,"Ġcaval":2752,"stia":2753,"Ġpiuttosto":2754,"Ġnota":2755,"ssand":2756,"Ġtradizione":2757,"Ġcampa":2758,"atte":2759,"Ġ28":2760,"Â»,":2761,"Ġ27":2762,"ĠsÃ©":2763,"Ġdenomina":2764,"tus":2765,"Ġcomun":2766,"pressione":2767,"Ġgoverna":2768,"Ġfinale":2769,"Ġcorre":2770,"Ġalto":2771,"ĠnÃ©":2772,"bietti":2773,"gica":2774,"Ġpur":2775,"Ġprobabilmente":2776,"Ġpunti":2777,"Ġmini":2778,"ĠYork":2779,"Ġsegre":2780,"Ġreale":2781,"art":2782,"Ġfini":2783,"Ġdunque":2784,"posto":2785,"Ġestre":2786,"etra":2787,"Ġpreve":2788,"Ġesso":2789,"Ġavuto":2790,"Do":2791,"gare":2792,"Ġroman":2793,"ĠTri":2794,"ĠBri":2795,"boli":2796,"ĠXX":2797,"Ġclasse":2798,"Ġce":2799,"idea":2800,"menta":2801,"bora":2802,"Ġbiso":2803,"ĠGiuseppe":2804,"Ġconcentra":2805,"assa":2806,"unica":2807,"36":2808,"ttoria":2809,"Ġatten":2810,"Ġpotrebbe":2811,"terno":2812,"Ġassocia":2813,"Ġregistra":2814,"cito":2815,"Ġvas":2816,"Ġusato":2817,"Ġmateriale":2818,"Non":2819,"Ġgreco":2820,"tera":2821,"ĠRos":2822,"Ġdifferenza":2823,"ĠMonte":2824,"ĠInoltre":2825,"vendo":2826,"Ġscopo":2827,"SA":2828,"Ġsubito":2829,"Ġintorno":2830,"ito":2831,"Ġara":2832,"ĠLuigi":2833,"vvi":2834,"Ġnoto":2835,"Ġtrasforma":2836,"Ġtempi":2837,"Ġordina":2838,"Ġalb":2839,"Ġspagno":2840,"invol":2841,"97":2842,"ensi":2843,"Ġsuccessivamente":2844,"inse":2845,"Ġabbiamo":2846,"ĠCina":2847,"38":2848,"gnato":2849,"ĠGes":2850,"0000":2851,"Unione":2852,"ficato":2853,"ĠPaolo":2854,"ranea":2855,"ĠEuropa":2856,"od":2857,"into":2858,"Ġpoter":2859,"im":2860,"erre":2861,"ĠNord":2862,"onico":2863,"pole":2864,"Ġlascia":2865,"Ġpartito":2866,"voluzione":2867,"ccolo":2868,"Ġbreve":2869,"Ġpopolo":2870,"Ġscuola":2871,"udi":2872,"Ġconsiderato":2873,"ranza":2874,"ĠBio":2875,"Ġprovo":2876,"lazioni":2877,"Ġdestina":2878,"Ġeli":2879,"bil":2880,"ĠSp":2881,"Ġabitanti":2882,"cÃ¬":2883,"Ġconfli":2884,"turo":2885,"Ġnumer":2886,"Ġmemo":2887,"ner":2888,"Ġelettr":2889,"Ġsimile":2890,"ĠNor":2891,"Ġmeridi":2892,"Ġdirettamente":2893,"Ġvero":2894,"Ġpochi":2895,"Ġnaturale":2896,"mÃ²":2897,"Ġmadre":2898,"Ã¶":2899,"VIAF":2900,"ĠautoritÃłVIAF":2901,"Ġabband":2902,"Ġaree":2903,"Ġtrattano":2904,"Ġrespon":2905,"ĠVenezia":2906,"trali":2907,"durre":2908,"Ġrete":2909,"Ġfigli":2910,"Ġproce":2911,"Ġcarri":2912,"anze":2913,"lico":2914,"siasi":2915,"batti":2916,"Ġspeciali":2917,"Ġsovra":2918,"ai":2919,"ramente":2920,"Ġcolo":2921,"Ġnazionali":2922,"Ġnoi":2923,"Ġ2007":2924,"Ġmessa":2925,"Ġmus":2926,"ssima":2927,"Ġinfine":2928,"ÃŃ":2929,"Ġspos":2930,"Ġtesto":2931,"Ġ2006":2932,"Ġ2008":2933,"Ġmusica":2934,"Ġindustri":2935,"ĠDis":2936,"ĠDurante":2937,"Ġcond":2938,"coltÃł":2939,"Ġcerto":2940,"Ġalta":2941,"tuto":2942,"Ġoccidentale":2943,"Ġesiste":2944,"Ġlon":2945,"ĠSpagna":2946,"Ġ(\"":2947,"Ġottenere":2948,"Ã³":2949,"âĢ³":2950,"Ġufficiale":2951,"Ġraccon":2952,"Ġinca":2953,"mbio":2954,"Ġcivile":2955,"ĠParigi":2956,"Ġtrasferi":2957,"op":2958,"Ġtemperatura":2959,"Ġipo":2960,"Ġstile":2961,"Ġcarb":2962,"tego":2963,"berto":2964,"Ġere":2965,"reno":2966,"urus":2967,"Ġsuccessivo":2968,"Ġ2010":2969,"ĠĊ":2970,"56":2971,"Ġada":2972,"Ġsostan":2973,"Ġdallo":2974,"Ġsess":2975,"ung":2976,"Ġdiritti":2977,"Ġcoinvol":2978,"Ordine":2979,"Ġresponsa":2980,"rebbero":2981,"ĠHe":2982,"Ġ40":2983,"ĠBu":2984,"Ġmalatti":2985,"Ġterzo":2986,"Ġrelazione":2987,"Ġmacch":2988,"ent":2989,"NA":2990,"Ġvuo":2991,"Ġprincipalmente":2992,"vanti":2993,"ĠItali":2994,"Ġgas":2995,"oco":2996,"cati":2997,"sio":2998,"Ġenergia":2999,"Ġdiffici":3000,"Ġzone":3001,"Ġqualsiasi":3002,"ĠEr":3003,"Ġpermette":3004,"ĠÃ":3005,"ĠNuo":3006,"Ġtea":3007,"blio":3008,"Ġpass":3009,"98":3010,"Ġconce":3011,"Ġcondi":3012,"ĠBre":3013,"ersi":3014,"Ġcora":3015,"Ġmole":3016,"96":3017,"Ġrico":3018,"din":3019,"Ġ2000":3020,"grafica":3021,"dard":3022,"Ġ2009":3023,"Ġtermini":3024,"Ġuso":3025,"Ġvisto":3026,"rate":3027,"ties":3028,"Ġeserci":3029,"enne":3030,"Ġpare":3031,"ĠAlessand":3032,"Ġatte":3033,"Ġesten":3034,"Ġsuddi":3035,"Ġromano":3036,"Ġmaggiori":3037,"wi":3038,"Ġvicino":3039,"Ġpassato":3040,"ment":3041,"Ġspiega":3042,"Ġcompletamente":3043,"Ġoggetti":3044,"matico":3045,"eci":3046,"Ġcollo":3047,"Ġcorte":3048,"Europa":3049,"Ġdovuto":3050,"ĠLond":3051,"ok":3052,"dimento":3053,"ĠAlc":3054,"erÃł":3055,"Ġvalori":3056,"metri":3057,"dino":3058,"ES":3059,"Ġporto":3060,"Ġocca":3061,"mitÃł":3062,"57":3063,"monia":3064,"Ġir":3065,"alisi":3066,"Ġimpe":3067,"Ġessendo":3068,"Ä«":3069,"bia":3070,"asso":3071,"Ġvolon":3072,"Ġparole":3073,"Ġ2011":3074,"Ġtentati":3075,"Ġcorrispon":3076,"mbe":3077,"Ġsembra":3078,"Ġvescovo":3079,"ĠBor":3080,"ĠFili":3081,"usione":3082,"sce":3083,"zzando":3084,"Ġblo":3085,"Ġmatri":3086,"Ġdistru":3087,"86":3088,"usse":3089,"Ġ2005":3090,"Äį":3091,"rea":3092,"Ġmetodo":3093,"Ġcontrib":3094,"Ġartico":3095,"tani":3096,"ĠAir":3097,"Ġlavora":3098,"Ġnumerose":3099,"Ġlocale":3100,"Ġriman":3101,"iasc":3102,"Ġesemp":3103,"mentali":3104,"tional":3105,"Di":3106,"Ġleggi":3107,"onn":3108,"samente":3109,"\")":3110,"Ġsemi":3111,"Ġmos":3112,"ĠMol":3113,"Ġassolu":3114,"Ġbasso":3115,"Ġ29":3116,"Ġglo":3117,"endono":3118,"ĠNapoli":3119,"cosa":3120,"riamente":3121,"ĠRussia":3122,"Ġcomando":3123,"come":3124,"Ġebra":3125,"ĠRu":3126,"Ġrisultato":3127,"Ġgro":3128,"bbia":3129,"int":3130,"ĠInf":3131,"Ġfunzioni":3132,"Ġforse":3133,"gua":3134,"Ġcolore":3135,"ĠqualitÃł":3136,"gato":3137,"mando":3138,"ĠCome":3139,"Ġattu":3140,"grafie":3141,"geno":3142,"gene":3143,"Ġrep":3144,"Ġconver":3145,"ant":3146,"Ġcontinua":3147,"Ġnascita":3148,"Ġesperi":3149,"gata":3150,"Ġ2012":3151,"Ġgeneralmente":3152,"Ġcomplessi":3153,"bio":3154,"utili":3155,"Ġmeccani":3156,"31":3157,"Ġpron":3158,"Ġproces":3159,"Ġconcetto":3160,"attivitÃł":3161,"ghil":3162,"tentri":3163,"Ġmio":3164,"Ġfigura":3165,"Ġorientale":3166,"gliere":3167,"Ġpresen":3168,"Ġbasi":3169,"Ġpensiero":3170,"cata":3171,"Ġstessi":3172,"ghilterra":3173,"Ġacqua":3174,"Ġradio":3175,"Ġpermet":3176,"bbli":3177,"volta":3178,"42":3179,"tagon":3180,"Ġscar":3181,"ans":3182,"Ġcolpi":3183,"Ġpiccolo":3184,"Ġdirezione":3185,"Ġrica":3186,"Ġmercato":3187,"Ġ2013":3188,"Ġstatunitense":3189,"Ġconsu":3190,"Ġmodi":3191,"Ġforti":3192,"Ġripre":3193,"Ġquar":3194,"uali":3195,"'s":3196,"ĠIdenti":3197,"ardia":3198,"Ġriguarda":3199,"Ġripor":3200,"Ġinci":3201,"Ġderiva":3202,"Ġfilosofia":3203,"Ġdistanza":3204,"alto":3205,"ĠSci":3206,"Ġvera":3207,"dale":3208,"atto":3209,"Ġimpiega":3210,"ormai":3211,"cole":3212,"Ġadotta":3213,"Ġnonostante":3214,"ĠGesÃ¹":3215,"Ġdisponi":3216,"ĠlibertÃł":3217,"Ġchiamata":3218,"Ġprincipio":3219,"Ġarmi":3220,"useo":3221,"Ġinferiore":3222,"Ġgiovane":3223,"Ġsovie":3224,"Ġbe":3225,"tern":3226,"Cat":3227,"UniversitÃł":3228,"id":3229,"risti":3230,"Ġfir":3231,"oti":3232,"Ġpoteva":3233,"Ġprepa":3234,"41":3235,"ĠUnito":3236,"lamento":3237,"mentazione":3238,"bita":3239,"Ġsinistra":3240,"gico":3241,"77":3242,"Ġrib":3243,"Ġministro":3244,"ĠSud":3245,"Ġveniva":3246,"rali":3247,"ky":3248,"Ġparola":3249,"ster":3250,"Ġimm":3251,"rone":3252,"cli":3253,"Ġmicro":3254,"Ġcombat":3255,"Ġnecessario":3256,"Ġcatego":3257,"ĠConsiglio":3258,"inte":3259,"Ġsquadra":3260,"ĠSici":3261,"Ġgiusti":3262,"toni":3263,"Åį":3264,"sion":3265,"ĠPr":3266,"ĠAntonio":3267,"Ġritro":3268,"ĠNell":3269,"Ġviol":3270,"late":3271,"tron":3272,"vera":3273,"Ġmia":3274,"ĠPol":3275,"ĠJe":3276,"ĠQuando":3277,"Ġsito":3278,"NI":3279,"orse":3280,"Ġsicurezza":3281,"enzia":3282,"genza":3283,"tagna":3284,"nova":3285,"Ġtorna":3286,"Ġ2004":3287,"Ġpace":3288,"Ġpiccoli":3289,"Ġschia":3290,"ĠSono":3291,"Ġappo":3292,"Ġj":3293,"erico":3294,"ĠImp":3295,"Gli":3296,"ssimo":3297,"Ġinfluenza":3298,"ĠAll":3299,"ĠIdentities":3300,"Ġvon":3301,"ĠWorldCat":3302,"Co":3303,"azioni":3304,"Ġdonna":3305,"Ġlatino":3306,"ley":3307,"essore":3308,"vale":3309,"ĠAng":3310,"Ġscritto":3311,"Ġmanifesta":3312,"Ġvolo":3313,"Ġ=":3314,"rno":3315,"Ġlunga":3316,"uter":3317,"Ġtrovano":3318,"Ġmaniera":3319,"ĠiniziÃ²":3320,"Ġnaturali":3321,"Ġraga":3322,"onese":3323,"Ġorg":3324,"Ġciasc":3325,"Ġcomplesso":3326,"imperatore":3327,"Ġdra":3328,"entali":3329,"Ġmeglio":3330,"Ġraff":3331,"Ġpersonale":3332,"Ġcellule":3333,"Ġitaliani":3334,"forme":3335,"Ġcritica":3336,"Ġdise":3337,"ĠTur":3338,"Ġormai":3339,"mor":3340,"Ġconn":3341,"lati":3342,"Ġguida":3343,"Ġraggiungere":3344,"Ġpiccola":3345,"Ġdipend":3346,"tretto":3347,"32":3348,"Ġ2014":3349,"ĠGio":3350,"Ġrisulta":3351,"Ġpp":3352,"Ġdifesa":3353,"omet":3354,"Ġgravi":3355,"Ġinvia":3356,"Ġschi":3357,"Ġlato":3358,"34":3359,"entra":3360,"Ġordine":3361,"ĠSin":3362,"Ġ+":3363,"tÃ¹":3364,"cord":3365,"Ġauton":3366,"Ġmono":3367,"Ġregioni":3368,"Ġfuoco":3369,"ĠStu":3370,"Ġsoldati":3371,"9870075":3372,"Ġconseguenza":3373,"76":3374,"Ġfru":3375,"Ġgiovani":3376,"Ġriser":3377,"onimo":3378,"fri":3379,"archi":3380,"94":3381,"Ġsupera":3382,"Ġmedio":3383,"Ġcomin":3384,"gresso":3385,"Ġripro":3386,"Ġpoe":3387,"Ġsecoli":3388,"Ġ&":3389,"Ġconoscenza":3390,"Ġproi":3391,"Ġmaschi":3392,"Ġcostante":3393,"Ġstandard":3394,"logo":3395,"Ġmateriali":3396,"Ġintegra":3397,"Ġportato":3398,"bro":3399,"Ġispi":3400,"58":3401,"Ġumani":3402,"Ġconquista":3403,"Ġrispetti":3404,"ĠQuesti":3405,"Å¡":3406,"ĠAs":3407,"gano":3408,"ĠSucc":3409,"Ġesegui":3410,"Ġagg":3411,"desi":3412,"ara":3413,"Ġoggetto":3414,"Ġformu":3415,"ĠMedi":3416,"Ġlavori":3417,"Ġinvi":3418,"mentari":3419,"Ġgiornali":3420,"Ġpiane":3421,"Ġfrancesi":3422,"Ġdestra":3423,"ficare":3424,"Ġterre":3425,"Ġsensi":3426,"Ġfaccia":3427,"dito":3428,"Ġinva":3429,"Ġcrisi":3430,"á¹":3431,"vesti":3432,"dos":3433,"Ġsettore":3434,"Ġimperia":3435,"Ġgeo":3436,"Ġvideo":3437,"gitto":3438,"enna":3439,"Ġfossero":3440,"Ġnega":3441,"fera":3442,"Ġvittoria":3443,"Ġmoglie":3444,"cend":3445,"teriori":3446,"Ġpressione":3447,"Ġfamos":3448,"Ġdiventa":3449,"orig":3450,"energia":3451,"Ġstudia":3452,"red":3453,"ĠPe":3454,"Ġpolitiche":3455,"duce":3456,"ĠTre":3457,"Ġmina":3458,"Ġparticolarmente":3459,"Ġeletto":3460,"ĠMos":3461,"Î±":3462,"non":3463,"Ġbambini":3464,"Ġcreare":3465,"renze":3466,"Ġeuropea":3467,"Ġsettentri":3468,"eb":3469,"Ġgeni":3470,"Ġriusci":3471,"tile":3472,"golo":3473,"ĠStoria":3474,"Ġnar":3475,"siamo":3476,"istica":3477,"Ġ2015":3478,"Ġprecedenti":3479,"Ġmal":3480,".\"":3481,"oli":3482,"Ġfonti":3483,"ffica":3484,"Ġio":3485,"Ġtroppo":3486,"estro":3487,"Ġ978":3488,"Re":3489,"Ġstrutture":3490,"quisi":3491,"ĠVol":3492,"Ġfisica":3493,"ĠÐ":3494,"risto":3495,"Ġana":3496,"Ġrisultati":3497,"Ġpreval":3498,"Ġmese":3499,"sile":3500,"Ġdiffi":3501,"mble":3502,"ĠPaesi":3503,"Ġentrambi":3504,"Ġresto":3505,"92":3506,"Ġprotagon":3507,"Ġdare":3508,"ssero":3509,"dite":3510,"econ":3511,"rire":3512,"Ġcarattere":3513,"Ġsuccessivi":3514,"Ġabbia":3515,"uore":3516,"endario":3517,"Ġsoltanto":3518,"Ġafferma":3519,"Ġromana":3520,"Lo":3521,"cura":3522,"tz":3523,"Ġcap":3524,"ĠAlla":3525,"Ġprincipe":3526,"Ġresistenza":3527,"Ġconfronti":3528,"Ġprom":3529,"Ġrifle":3530,"mber":3531,"ens":3532,"Ġsfru":3533,"Ġpotenza":3534,"ĠEd":3535,"Ġfanno":3536,"ĠGiappone":3537,"Ġger":3538,"Ġeventi":3539,"Ġprese":3540,"53":3541,"Ġscom":3542,"Ġom":3543,"Ġidro":3544,"ĠChar":3545,"Ġcomposto":3546,"ĠPres":3547,"ĠGeor":3548,"Ġscelta":3549,"Ġpubblicato":3550,"saurus":3551,"Ġavviene":3552,"anismo":3553,"ĠnonchÃ©":3554,"93":3555,"dal":3556,"Ġconvin":3557,"Ġintra":3558,"lora":3559,"Ġcitazioni":3560,"Ġ2001":3561,"vista":3562,"Ġservizi":3563,"mme":3564,"Ġfacendo":3565,"Ġtecnica":3566,"Ġsimili":3567,"Ġanzi":3568,"Ġurb":3569,"Ġfuturo":3570,"Ġmeridionale":3571,"quote":3572,"Dopo":3573,"soli":3574,"ettato":3575,"Ġoperazioni":3576,"verno":3577,"Ġ180":3578,"estre":3579,"ĠWi":3580,"Ġuomo":3581,"ĠJu":3582,"ĠriuscÃ¬":3583,"egli":3584,"arie":3585,"Ġy":3586,"Ġquarti":3587,"ĠBr":3588,"ĠEdi":3589,"Ġ2003":3590,"ĠGrande":3591,"zzano":3592,"Ġrisol":3593,"Ġgioca":3594,"tÃ©":3595,"Ġscienza":3596,"Ġconflitto":3597,"Ġritorno":3598,"vvis":3599,"conda":3600,"kis":3601,"demia":3602,"Ġcostituito":3603,"Ġord":3604,"Ġricos":3605,"Ġcittadini":3606,"ordinate":3607,"Î¿":3608,"ĠportÃ²":3609,"usta":3610,"ambi":3611,"ĠCha":3612,"Ġvedere":3613,"zienda":3614,"Ġ31":3615,"Ġtrattato":3616,"Ġseguente":3617,"ĠTorino":3618,"tito":3619,"ĠBen":3620,"ĠVI":3621,"Ġdevono":3622,"Ġminore":3623,"Tra":3624,"riche":3625,"Ġappena":3626,"liam":3627,"Ġmotore":3628,"ĠSar":3629,"Ġreligione":3630,"wn":3631,"ash":3632,"Ġseguenti":3633,"Ġconto":3634,"dotti":3635,"Ġ2016":3636,"Ġnostro":3637,"America":3638,"Ġdisa":3639,"Ġimmedia":3640,"ov":3641,"Ġcampagna":3642,"tituzione":3643,"Ġlunghezza":3644,"Ġsarebbero":3645,"ĠFed":3646,"Ġunico":3647,"Ġfan":3648,"Ġvilla":3649,"cella":3650,"Ġumano":3651,"ĠMarco":3652,"resso":3653,"Ġtrasporto":3654,"Ġcostru":3655,"Ġmaggioranza":3656,"ĠFirenze":3657,"immag":3658,"und":3659,"ĠSuper":3660,"ĠPoli":3661,"Ġcosti":3662,"Ġstrate":3663,"Ġfal":3664,"Ġebre":3665,"Ġelezioni":3666,"79":3667,"borazione":3668,"Ġragione":3669,"Ġgene":3670,"anz":3671,"Ġesclusi":3672,"ader":3673,"Ġest":3674,"Ġeste":3675,"lando":3676,"creto":3677,"68":3678,"oren":3679,"tribuzione":3680,"Ġfenomeno":3681,"Ġato":3682,"zzÃ²":3683,"Ġ2017":3684,"Ġinizialmente":3685,"initÃł":3686,"Ġantico":3687,"ĠPla":3688,"Ġcoper":3689,"Ġufficiali":3690,"fficiente":3691,"Ġ60":3692,"ĠMinis":3693,"Ġdiretto":3694,"ccup":3695,"Ġ2019":3696,"ps":3697,"Ġcinese":3698,"Î½":3699,"Ġaffron":3700,"Ġcosto":3701,"ĠnecessitÃł":3702,"Ġperse":3703,"Ġcosta":3704,"ĠLondra":3705,"mere":3706,"Ġrapporti":3707,"Ġfondamentale":3708,"ill":3709,"Ġattribui":3710,"Ġdefinizione":3711,"Ġproto":3712,"ĠCristo":3713,"ĠCes":3714,"cy":3715,"ua":3716,"bar":3717,"Ġfratello":3718,"tene":3719,"Ġumana":3720,"Ġ2002":3721,"berg":3722,"Ġemer":3723,"Ġcrea":3724,"sale":3725,"anitÃł":3726,"Ġcomand":3727,"Ġpiani":3728,"Ġsino":3729,"Ġdisposi":3730,"Ġsperi":3731,"veri":3732,"Ġdesid":3733,"Ġlinee":3734,"Ġpericolo":3735,"Ġcompr":3736,"Ġformato":3737,"Ġcreazione":3738,"ski":3739,"Ġcrescita":3740,"senza":3741,"ppio":3742,"ĠCu":3743,"orgio":3744,"59":3745,"Ġcast":3746,"Ġdecise":3747,"inten":3748,"Ġmediante":3749,"Ġmu":3750,"Ġvir":3751,"Ġarchite":3752,"fra":3753,"Ġ2018":3754,"Ġinsta":3755,"Ġqualcosa":3756,"evo":3757,"anne":3758,"Ġrimase":3759,"ita":3760,"ccn":3761,"Ġpopolare":3762,"gnia":3763,"lccn":3764,"eme":3765,"Ġeconomica":3766,"Ġmura":3767,"Ġtrovare":3768,"ĠGuerra":3769,"Ġmodelli":3770,"Ġprogressi":3771,"ĠXIX":3772,"Ġaccom":3773,"Ġdecen":3774,"raneo":3775,"gegn":3776,"dy":3777,"tio":3778,"Ġvenivano":3779,"ĠBro":3780,"CF":3781,"Ġsviluppa":3782,"Ġsequ":3783,"Ġinseri":3784,"Ġcoloni":3785,"Ġtedeschi":3786,"Ġgaranti":3787,"ĠVa":3788,"ker":3789,"Ġfiglia":3790,"Ġaerei":3791,"Ġmassima":3792,"trici":3793,"Ġch":3794,"Ġcur":3795,"XX":3796,"Ġ000":3797,"Ġsoluzione":3798,"500":3799,"64":3800,"Ġponte":3801,"ĠFri":3802,"ĠWikiquote":3803,"mone":3804,"ĠSicilia":3805,"Ġono":3806,"malmente":3807,"ggere":3808,"Ġparticolari":3809,"ĠHar":3810,"ĠOri":3811,"ada":3812,"ĠEl":3813,"fonte":3814,"Ġmoderna":3815,"ĠBal":3816,"Ġventi":3817,"Ġfatti":3818,"Ġsugg":3819,"ĠTale":3820,"burgo":3821,"ĠFra":3822,"Pa":3823,"ĠâĶ":3824,"Ġspetta":3825,"Ġappare":3826,"ĠDavi":3827,"enso":3828,"Ġresid":3829,"Ġvoce":3830,"Ġdifficile":3831,"done":3832,"Ġpersonali":3833,"Ġculturale":3834,"biettivo":3835,"endendo":3836,"Ġpeso":3837,"84":3838,".]":3839,"à¤":3840,"ĠMas":3841,"cini":3842,"ettare":3843,"cido":3844,"Ġscor":3845,"epi":3846,"Ġassa":3847,"SI":3848,"devano":3849,"yn":3850,"Ġnostra":3851,"Ġgioco":3852,"Ġsignificato":3853,"teca":3854,"logie":3855,"Ġattorno":3856,"Ġpiccole":3857,"Ġrapida":3858,"ex":3859,"Ġantica":3860,"Ġlingue":3861,"cine":3862,"Ġvanta":3863,"Ġfemmini":3864,"ward":3865,"Ġtito":3866,"ĠNazionale":3867,"ĠBel":3868,"Ġclima":3869,"damento":3870,"Ġstrumenti":3871,"daco":3872,"Ġrischio":3873,"ple":3874,"Ġestra":3875,"ddis":3876,"mbolo":3877,"Ġero":3878,"ĠSant":3879,"Ġfed":3880,"Ġleg":3881,"Ġesemplari":3882,"ĠetÃł":3883,"vando":3884,"pposizione":3885,"dico":3886,"ondi":3887,"Ġriuni":3888,"Ġpassaggio":3889,"54":3890,"Ġdiffusione":3891,"Ġcorrente":3892,"Ġpal":3893,"Ã«":3894,"Ġterza":3895,"Ġ--":3896,"Ġpilo":3897,"Una":3898,"ĠWilliam":3899,"Ġrisposta":3900,"Ġnotte":3901,"elet":3902,"Ġavrebbero":3903,"erop":3904,"Ġpossa":3905,"Ġossia":3906,"Ġmassimo":3907,"Ġalterna":3908,"Ġmotivo":3909,"bal":3910,"ttr":3911,"lui":3912,"ves":3913,"inta":3914,"ĠAndre":3915,"Ġ(âĢł":3916,"Ġtermina":3917,"Ġpressi":3918,"Ġfinanzi":3919,"ĠNico":3920,"Ġoriginale":3921,"Ġevitare":3922,"Ġcontatto":3923,"83":3924,"zan":3925,"Ġeconomico":3926,"unta":3927,"Ġdimin":3928,"illa":3929,"Ġmone":3930,"ĠUniversi":3931,"bus":3932,"Ġstorici":3933,"Ġobbli":3934,"ĠAlessandro":3935,"Ġsebbene":3936,"ambito":3937,"Ġdiscip":3938,"Ġpartecip":3939,"esistenza":3940,"cque":3941,"Ġentro":3942,"Ġdollari":3943,"Ġreazione":3944,"Ġacque":3945,"Ġstampa":3946,"Ġchiese":3947,"Ġmemoria":3948,"ĠMen":3949,"pore":3950,"anima":3951,"Ġecce":3952,"Ġlibri":3953,"ware":3954,"Ġtecniche":3955,"Ġ2020":3956,"anismi":3957,"Ġdemocra":3958,"Ġ1999":3959,"Ġrimane":3960,"Ġdinastia":3961,"Du":3962,"organizzazione":3963,"Ġcl":3964,"anesimo":3965,"ĠPas":3966,"ĠPresidente":3967,"ĠAug":3968,"Ġtess":3969,"ction":3970,"ttivo":3971,"ons":3972,"venzione":3973,"91":3974,"Ġbassa":3975,"Ġsap":3976,"Ġcircos":3977,"attuale":3978,"Ġlotta":3979,"anco":3980,"Ġvet":3981,"eld":3982,"cidi":3983,"Ġgiuri":3984,"61":3985,"ĠFilippo":3986,"Ġletteratura":3987,"ĠMad":3988,"ĠdifficoltÃł":3989,"Ġincontra":3990,"ĠPaese":3991,"Ġclassifica":3992,"Ġregime":3993,"gie":3994,"ĠInterna":3995,"Ġinterno":3996,"isto":3997,"Ġmorti":3998,"Ġmagne":3999,"Ġpiante":4000,"cur":4001,"enziale":4002,"ĠPal":4003,"Ġregola":4004,"Ġgenerali":4005,"Ġimpre":4006,"Ġperf":4007,"Ġconsi":4008,"bbi":4009,"atta":4010,"erato":4011,"volo":4012,"Ġprincipi":4013,"Ġutilizzata":4014,"63":4015,"Ri":4016,"Ġstrani":4017,"ĠCre":4018,"ĠGrecia":4019,"82":4020,"ĠTom":4021,"amm":4022,"stiche":4023,"cili":4024,"Ġpresto":4025,"Ġconsiste":4026,"ego":4027,"DL":4028,"Ġepiso":4029,"Ġdifferenti":4030,"Ġscala":4031,"ĠGiorgio":4032,"Nella":4033,"ttiva":4034,"occupa":4035,"ting":4036,"impero":4037,"mes":4038,"Ġmoto":4039,"Ġazioni":4040,"ora":4041,"Ġdigi":4042,"Ġmiglia":4043,"Ġtestimoni":4044,"Ġstatu":4045,"Ġdieci":4046,"Ġpopolazioni":4047,"Ġcondanna":4048,"72":4049,"essere":4050,"pponese":4051,"stro":4052,"ĠEu":4053,"Ġpiazza":4054,"Ġbritannico":4055,"landa":4056,"Ġtentativo":4057,"Ġviaggio":4058,"Ġsettentrionale":4059,"Ġpolitici":4060,"ĠAg":4061,"Ġmatematica":4062,"Ġsoggetti":4063,"ĠMer":4064,"Ġcandi":4065,"utazione":4066,"ziano":4067,"Ġciclo":4068,"erazione":4069,"Ġspiri":4070,"ĠAb":4071,"corr":4072,"Ġtardi":4073,"Ġposse":4074,"ĠGro":4075,"Ġnomi":4076,"logico":4077,"Ġcentri":4078,"ĠEnrico":4079,"ento":4080,"ĠPorto":4081,"alb":4082,"Ġpazi":4083,"Ġisole":4084,"landese":4085,"gan":4086,"cerdo":4087,"nel":4088,"Ġattacca":4089,"Ġrecente":4090,"ĠBNCF":4091,"ĠEs":4092,"Ġorganizza":4093,"62":4094,"Ġries":4095,"Ġsimbo":4096,"enato":4097,"isa":4098,"ĠCostan":4099,"del":4100,"ĠSco":4101,"Ġflo":4102,"tena":4103,"Ci":4104,"Ġsche":4105,"mba":4106,"Ġrifer":4107,"Ġavanza":4108,"73":4109,"Ġutilizzati":4110,"Ġcomputer":4111,"Ġassieme":4112,"Ġlei":4113,"Ġmatrimonio":4114,"Ġprotezione":4115,"Ġantichi":4116,"grafico":4117,"economia":4118,"evi":4119,"abb":4120,"ĠAlcuni":4121,"Ġdeli":4122,"Ġ88":4123,"ĠMal":4124,"Ġrivela":4125,"51":4126,"Ġmulti":4127,"ys":4128,"Ġnulla":4129,"roni":4130,"Ġdecora":4131,"ceva":4132,"Ġvitti":4133,"Ġbuona":4134,"Ġdiale":4135,"Ġprofessi":4136,"anca":4137,"Ġlista":4138,"Ġforn":4139,"Ġmale":4140,"Ġsfrutta":4141,"Ġneu":4142,"Ġgiudi":4143,"onare":4144,"Ġdiretta":4145,"unico":4146,"Ġdivisione":4147,"Ġcomincia":4148,"Ġprosp":4149,"Ġvole":4150,"ct":4151,"52":4152,"Ġsoggetto":4153,"amo":4154,"impor":4155,"han":4156,"rlo":4157,"geni":4158,"Ġsingolo":4159,"dra":4160,"ĠautoritÃłThe":4161,"ĠautoritÃłThesaurus":4162,"69":4163,"Ġtedesca":4164,"Ġgestione":4165,"van":4166,"ĠEle":4167,"turi":4168,"Ġterreno":4169,"lante":4170,"Ca":4171,"ence":4172,"celle":4173,"Ġterres":4174,"vel":4175,"Ġnominato":4176,"Ġcomprende":4177,"81":4178,"Ġferi":4179,"Ġpresta":4180,"Ġoccasione":4181,"Ġdedicata":4182,"messo":4183,"Ġevol":4184,"Ġï»¿":4185,"Ġfede":4186,"74":4187,"Ġsemplicemente":4188,"Ġebrei":4189,"ames":4190,"insieme":4191,"ĠStra":4192,"Ġpalazzo":4193,"Ġfarma":4194,"Ġbomb":4195,"JA":4196,"ĠBene":4197,"Ġquestione":4198,"Ġesse":4199,"cha":4200,"lusso":4201,"Ġugu":4202,"Ġdefinito":4203,"Ġrisorse":4204,"Ġcomponenti":4205,"terni":4206,"Ġcondizione":4207,"Ġtrono":4208,"ÏĦ":4209,"Ġnuovamente":4210,"Ġmetro":4211,"fis":4212,"sca":4213,"Ġcerca":4214,"Ġdominio":4215,"Ġfunziona":4216,"Ġaustria":4217,"Ġnotevole":4218,"solu":4219,"Ġliqui":4220,"detto":4221,"ãĥ":4222,"xi":4223,"ĠISNI":4224,"andosi":4225,"Ġportare":4226,"ĠCiÃ²":4227,"Å«":4228,"ĠmorÃ¬":4229,"Ġdet":4230,"vazione":4231,"Ġsuperiori":4232,"Ġcommerciali":4233,"Ġrosso":4234,"rana":4235,"Ġoccup":4236,"Ġela":4237,"Ġcombatti":4238,"Ġconsiderata":4239,"Ġbisogno":4240,"Ġvali":4241,"anche":4242,"Ġconfine":4243,"mini":4244,"Ġriforma":4245,"ttica":4246,"Ġestrema":4247,"Ġcontrario":4248,"Ġinvesti":4249,"Ġadatta":4250,"operazione":4251,"Ġdisco":4252,"Ġrende":4253,"119":4254,"cs":4255,"ggiare":4256,"Ġlinguaggio":4257,"ĠHu":4258,"onati":4259,"Ġimportanza":4260,"pubbli":4261,"ĠMedio":4262,"Ġrusso":4263,"Ġpertanto":4264,"Ġsovrano":4265,"Ġbianco":4266,"Ġverifica":4267,"Ġmotori":4268,"cel":4269,"ĠEra":4270,"Ġfamiglie":4271,"inÃ²":4272,"mann":4273,"mmo":4274,"sias":4275,"cidio":4276,"amente":4277,"Ġtelef":4278,"Ġnave":4279,"Ġsali":4280,"Ġutilizza":4281,"petto":4282,"Ġmacchina":4283,"71":4284,"Ġcontrolla":4285,"vers":4286,"Ġsposta":4287,"Ġcattolica":4288,"Ġtema":4289,"Ġrisal":4290,"Ġcivili":4291,"tal":4292,"Ġprovenienti":4293,"ĠMor":4294,"ĠGui":4295,"Ġnero":4296,"Ġá":4297,"Ġaumen":4298,"Ð°":4299,"Ġelettro":4300,"immagine":4301,"erale":4302,"Ġghia":4303,"ĠDel":4304,"arca":4305,"Ġidee":4306,"\"),":4307,"Ġpersonaggi":4308,"Ġquell":4309,"Ġradica":4310,"ĠDani":4311,"Ġmuo":4312,"Ġdottr":4313,"Ġabbas":4314,"Ġimperiale":4315,"canti":4316,"Ġavesse":4317,"ington":4318,"pendenza":4319,"Ġcontemporanea":4320,"gnore":4321,"Ġcomportamento":4322,"Ġvege":4323,"Ġinteresse":4324,"ĠVo":4325,"ĠNei":4326,"Ġstrumento":4327,"Ġaddi":4328,"ĠVen":4329,"we":4330,"Ġang":4331,"Ġsupporto":4332,"Ġprende":4333,"ambiente":4334,"Ġarche":4335,"Ġmoda":4336,"Ġfasci":4337,"Ġossi":4338,"Ġprocessi":4339,"Ġrivoluzione":4340,"ĠCO":4341,"gori":4342,"Ġinn":4343,"bale":4344,"Ġcombina":4345,"Ġcodice":4346,"Ġradia":4347,"Ġprose":4348,"angelo":4349,"Mi":4350,"eff":4351,"Ġdurata":4352,"Ġvisione":4353,"ĠFin":4354,"Ġ1990":4355,"ĠDemocra":4356,"arma":4357,"resta":4358,"Questo":4359,"Ġcommercio":4360,"Ġstava":4361,"by":4362,"Ġscientifica":4363,"Ġprofi":4364,"ĠAmerica":4365,"Ġsacerdo":4366,"valiere":4367,"ĠVe":4368,"udo":4369,"Ġsangue":4370,"Ġlegis":4371,"vile":4372,"intera":4373,"Ġdoveva":4374,"ĠPrima":4375,"Ġdiplo":4376,"Ġscuole":4377,"Ġsezione":4378,"onio":4379,"Ġsimbolo":4380,"ĠUnite":4381,"ji":4382,"Ġstelle":4383,"como":4384,"utilizzo":4385,"Ġdesi":4386,"ĠColle":4387,"Ġpresti":4388,"Ġbeni":4389,"Ġcolonia":4390,"Ġmedico":4391,"Ġ1998":4392,"Ġtelevisi":4393,"Ġcanz":4394,"Ġtradizionale":4395,"ĠSul":4396,"Ġprova":4397,"Ġpale":4398,"Ġcattura":4399,"Ris":4400,"cuzione":4401,"bbiamo":4402,"antica":4403,"Ġdiocesi":4404,"otidi":4405,"Ġfedera":4406,"ĠNDL":4407,"destra":4408,"ĠUniversity":4409,"Ġmigliore":4410,"Ġpianta":4411,"gente":4412,"Ġmalattia":4413,"Ġtecnologia":4414,"gnati":4415,"ansione":4416,"Ġinizio":4417,"Ġsugli":4418,"Ġgreca":4419,"dova":4420,"lib":4421,"Ġfondo":4422,"Ġrichiesta":4423,"Ġmiliardi":4424,"onde":4425,"Ġrelazioni":4426,"Ġmembro":4427,"ĠPia":4428,"stina":4429,"Ġfred":4430,"anzia":4431,"Ġvede":4432,"ÏĤ":4433,"Ġmezzi":4434,"ologna":4435,"Ġeffica":4436,"sica":4437,"Ġabbastanza":4438,"ĠHi":4439,"Ġovest":4440,"Ġtratto":4441,"my":4442,"SS":4443,"Ġedifici":4444,"Ġfondata":4445,"ku":4446,"Ġconsenti":4447,"Ġferrovia":4448,"ĠXVI":4449,"Ġtr":4450,"ĠQueste":4451,"var":4452,"bel":4453,"Vi":4454,"minazione":4455,"origine":4456,"decesso":4457,"equi":4458,"ciano":4459,"Ġaccor":4460,"Ġ70":4461,"mili":4462,"Ġ1997":4463,"Ã§":4464,"Ġsto":4465,"ĠâĶĤ":4466,"ĠCana":4467,"ĠHer":4468,"Ġdiede":4469,"Ġcata":4470,"Ġcomposta":4471,"Ġ2021":4472,"ticolo":4473,"Ġsolito":4474,"uzioni":4475,"nato":4476,"Ġconquis":4477,"Ġconsider":4478,"Ġfalli":4479,"Ġgiapponese":4480,"crizione":4481,"inistrazione":4482,"Ġstudiosi":4483,"Tu":4484,"Ġteatro":4485,"ciando":4486,"ath":4487,"ĠAra":4488,"Ġcarta":4489,"gnÃ²":4490,"Ġmonu":4491,"ĠAt":4492,"Ġacco":4493,"Ġaus":4494,"Ð¾":4495,"ĠSpe":4496,"duti":4497,"ĠBiografie":4498,"Ġpolizia":4499,"Ġcostruito":4500,"ĠEli":4501,"Ġfonte":4502,"Ġconces":4503,"Ġscoperta":4504,"Ġbal":4505,"AT":4506,"Ġesplo":4507,"missioni":4508,"Ġpsicolo":4509,"ford":4510,"ĠWa":4511,"Ġespri":4512,"Ġisola":4513,"Ġacquis":4514,"ĠEurope":4515,"Da":4516,"Ġ1995":4517,"Ġdavanti":4518,"canza":4519,"ĠLet":4520,"ĠveritÃł":4521,"Ġcorrisp":4522,"Ġcarriera":4523,"autore":4524,"uli":4525,"Ġcomunicazione":4526,"Ġdiscus":4527,"Ġprov":4528,"Ġduca":4529,"ER":4530,"blioteca":4531,"Ġdiverso":4532,"Ġmantenere":4533,"...":4534,"ĠSpa":4535,"arco":4536,"Ġvie":4537,"Ġalcun":4538,"Ġoli":4539,"gy":4540,"gento":4541,"ĠPalazzo":4542,"viso":4543,"glior":4544,"Ġcontenuto":4545,"Ġsfor":4546,"Ġmonas":4547,"Î¹":4548,"Ġrivolta":4549,"Ġespre":4550,"ĠEgli":4551,"Ġcoltiva":4552,"ĠFederico":4553,"Ġcostruire":4554,"ĠPhi":4555,"ormente":4556,"bli":4557,"versale":4558,"fano":4559,"Ġprendere":4560,"Ġcomandante":4561,"dae":4562,"Ġindicare":4563,"Ġpiedi":4564,"Ġfabb":4565,"Ġsole":4566,"Ġchilo":4567,"Ġposti":4568,"Ġcompleta":4569,"Ġdizionario":4570,"gimento":4571,"Ġpercorso":4572,"ght":4573,"ndo":4574,"Ġpagina":4575,"ĠWal":4576,"spe":4577,"sivo":4578,"Ġpelle":4579,"dol":4580,"Ġcann":4581,"Ġstorica":4582,"Ġtend":4583,"ĠâĢł":4584,"rca":4585,"Ġ1992":4586,"cchie":4587,"Ġ1991":4588,"ĠCostantino":4589,"terie":4590,"Ġscena":4591,"ĠvarietÃł":4592,"nio":4593,"Ġimpedi":4594,"ggiato":4595,"ney":4596,"Ġriguard":4597,"atelli":4598,"Ġdisse":4599,"Ġsolitamente":4600,"Ġfanta":4601,"ĠNegli":4602,"otto":4603,"Ġcreato":4604,"arri":4605,"Ġromani":4606,"Ġpotrebbero":4607,"Ġromanzo":4608,"ffa":4609,"veva":4610,"ruppo":4611,"ras":4612,"Ġlancia":4613,"Ġanch":4614,"analisi":4615,"ĠMis":4616,"Ġlivelli":4617,"Ġannun":4618,"Ġnucleo":4619,"ricol":4620,"Ġrispettivamente":4621,"Ġleader":4622,"ĠBologna":4623,"Ġscene":4624,"Ġdistingu":4625,"Ġschiavi":4626,"gendo":4627,"Ġcorpi":4628,"logica":4629,"Ġavanti":4630,"Ġsper":4631,"vello":4632,"Ġaspetti":4633,"Ġrad":4634,"Ġinterro":4635,"ĠRobert":4636,"utare":4637,"Ġanali":4638,"Ġconosciuto":4639,"ĠCroce":4640,"Ġarg":4641,"ciazione":4642,"ĠPrinci":4643,"Ġsucce":4644,"lum":4645,"Ġcolori":4646,"ltÃł":4647,"Ġrecu":4648,"Ġraffi":4649,"Ġnostri":4650,"Ġamici":4651,"Ġgrave":4652,"Ġcambio":4653,"Ġtalvolta":4654,"Ġluoghi":4655,"gnare":4656,"Ġriporta":4657,"Ġsalute":4658,"Ġlettere":4659,"ary":4660,"Ġcaduta":4661,"Ġspet":4662,"Ġbordo":4663,"Ġeffetto":4664,"Ġvene":4665,"ĠLib":4666,"Ġpossiamo":4667,"Ġusata":4668,"Ġcostituita":4669,"vietica":4670,"ĠvolontÃł":4671,"cial":4672,"Ġculto":4673,"ĠSpi":4674,"Ġdiventare":4675,"Ġdistribuzione":4676,"impi":4677,"Ġcamp":4678,"cante":4679,"Ġconcer":4680,"Ġlegno":4681,"Ġminori":4682,"Ġfol":4683,"visa":4684,"Ġpubblici":4685,"ms":4686,"Ġpersonaggio":4687,"Ġcomposi":4688,"rori":4689,"ĠDavid":4690,"nÃ²":4691,"die":4692,"Ġber":4693,"ĠCe":4694,"ĠBos":4695,"Ġcerta":4696,"Ġade":4697,"tes":4698,"Ġcommerciale":4699,"Ġvolume":4700,"Ġraccolta":4701,"Ġquotidi":4702,"terÃł":4703,"ĠOli":4704,"ĠNonostante":4705,"ĠRis":4706,"Ġprevis":4707,"Ġstesse":4708,"Ġ1996":4709,"Ġprodurre":4710,"Ġlemma":4711,"Ġrealizzazione":4712,"ipo":4713,"Ġveli":4714,"Ġener":4715,"Ġscrisse":4716,"stein":4717,"archia":4718,"diamo":4719,"ham":4720,"esperi":4721,"ks":4722,"ĠÅ":4723,"bato":4724,"Ġprotagonista":4725,"Ġeven":4726,"Ġinteress":4727,"Ġdanni":4728,"Ġespon":4729,"Ġado":4730,"Ġbol":4731,"uma":4732,"Ġ1994":4733,"prire":4734,"parti":4735,"Ġ2022":4736,"rich":4737,"archite":4738,"Ġfattori":4739,"Ġmarina":4740,"Ġdirig":4741,"Ġcinema":4742,"Ġ1993":4743,"Ġritor":4744,"ĠHen":4745,"Secondo":4746,"Ġufficialmente":4747,"Ġesistono":4748,"987007":4749,"ĠAus":4750,"Ġsuccessiva":4751,"ĠApp":4752,"ĠMc":4753,"ĠPolonia":4754,"ĠKi":4755,"Gi":4756,"Ġaccordo":4757,"pio":4758,"ĠJean":4759,"Ġperce":4760,"Ġidentifica":4761,"essivamente":4762,"Ġottenuto":4763,"Ġpotevano":4764,"cero":4765,"estra":4766,"Ġraffigu":4767,"essero":4768,"volmente":4769,"elmo":4770,"Ġbru":4771,"Ġamp":4772,"ĠBretagna":4773,"stici":4774,"lanti":4775,"ultura":4776,"Ġsel":4777,"raele":4778,"reni":4779,"Ġcapp":4780,"ĠSanto":4781,"Ġsiamo":4782,"sab":4783,"osci":4784,"ĠVII":4785,"Ġcalcio":4786,"App":4787,"Ġincom":4788,"Ġimb":4789,"Ġmoderni":4790,"Ġcase":4791,"onata":4792,"Ġfatta":4793,"ĠLan":4794,"Ġcampionato":4795,"venire":4796,"Ïģ":4797,"Ġincre":4798,"ttato":4799,"Ġparall":4800,"Ġreso":4801,"Ġlibero":4802,"dge":4803,"edere":4804,"Ġdimensione":4805,"ĠThom":4806,"Ġgente":4807,"dor":4808,"ĠSy":4809,"Ġcaratteristica":4810,"Ġelemento":4811,"Ġdeca":4812,"Ġbor":4813,"ĠSovietica":4814,"ĠGol":4815,"Ġ1945":4816,"erata":4817,"mine":4818,"Ġeuropeo":4819,"Ġsatelli":4820,"tologia":4821,"ĠRich":4822,"Ġinver":4823,"Ġspor":4824,"ĠperciÃ²":4825,"Ġposta":4826,"Quando":4827,"ĠGeorge":4828,"lub":4829,"erri":4830,"Ġottenne":4831,"onici":4832,"indipendenza":4833,"Ġorto":4834,"azia":4835,"Ġsoste":4836,"Ġcelebra":4837,"Ġreg":4838,"Ġmetodi":4839,"Ġbos":4840,"Ġcominci":4841,"ĠColo":4842,"kh":4843,"Â²":4844,"utica":4845,"ĠFre":4846,"ĠSha":4847,"Ġ90":4848,"Ġcompagnia":4849,"idi":4850,"\").":4851,"mbri":4852,"siede":4853,"ĠNuova":4854,"cui":4855,"Ġelettrica":4856,"tory":4857,"Ġsorg":4858,"Ġriguardo":4859,"Ġiscri":4860,"Ġmuni":4861,"ĠTro":4862,"aper":4863,"Ġaccompagna":4864,"ĠMu":4865,"Ġsele":4866,"dd":4867,"rore":4868,"Ġfemminile":4869,"ĠEx":4870,"onne":4871,"ĠWikizionario":4872,"Ġcontesto":4873,"Ġcoloro":4874,"Ġscritti":4875,"Ġsolle":4876,"gr":4877,"Ġdecisione":4878,"Ġintito":4879,"ĠMus":4880,"lievo":4881,"Ġtrattamento":4882,"Ġparlare":4883,"ĠJames":4884,"Ġaereo":4885,"ici":4886,"orme":4887,"Ġmissione":4888,"ĠZa":4889,"Pi":4890,"Ġner":4891,"Ġneo":4892,"Ġconsa":4893,"Dal":4894,"Ġampia":4895,"mblea":4896,"Ġquei":4897,"tava":4898,"ĠCalendario":4899,"cm":4900,"Ġ150":4901,"Ġstella":4902,"arlo":4903,"Ġder":4904,"ĠlocalitÃł":4905,"ĠCristi":4906,"ĠXVIII":4907,"Ġmetalli":4908,"ĠPaul":4909,"Ġepoca":4910,"Ġmotivi":4911,"decessore":4912,"ontan":4913,"Ġeuropei":4914,"Ġeuro":4915,"Ġpietra":4916,"Ġrilas":4917,"Ġrealizzato":4918,"Ġucc":4919,"Ġpotuto":4920,"ĠLin":4921,"Ġposizioni":4922,"Ġvicen":4923,"gro":4924,"Ġconfini":4925,"Ġsconfitta":4926,"intero":4927,"Ġutilizzare":4928,"Ġsoddis":4929,"Ġattualmente":4930,"Ġcibo":4931,"siva":4932,"neo":4933,"Ġsosteni":4934,"inali":4935,"Ġenti":4936,"Po":4937,"Ġfilo":4938,"Ġsaranno":4939,"Ġmigliori":4940,"Come":4941,"mazione":4942,"Ġocchi":4943,"Inghilterra":4944,"Ġcorona":4945,"Ġusare":4946,"Ġinglesi":4947,"ttorio":4948,"talitÃł":4949,"mise":4950,"Ġregia":4951,"Ġmovimenti":4952,"ĠPress":4953,"ãĤ":4954,"erio":4955,"vor":4956,"Ġchimica":4957,"Ġperman":4958,"rima":4959,"ĠOs":4960,"Ġmat":4961,"fre":4962,"cate":4963,"gamento":4964,"dier":4965,"Ġandare":4966,"teriormente":4967,"Ġindustriale":4968,"Ġcomposizione":4969,"Ġcategoria":4970,"atten":4971,"gitti":4972,"up":4973,"zionalmente":4974,"Ġcompito":4975,"ĠCharles":4976,"Ġminuti":4977,"rne":4978,"Ġcontenuti":4979,"dui":4980,"ccidente":4981,"formazione":4982,"Ġsepol":4983,"Ġcollaborazione":4984,"Is":4985,"Ġtrasfor":4986,"Ġinflu":4987,"Ġstudenti":4988,"Ġaccade":4989,"drale":4990,"mpe":4991,"Ð¸":4992,"lismo":4993,"Ġfacilmente":4994,"Ġarmate":4995,"Ġprocla":4996,"Ġ1943":4997,"razioni":4998,"Ġdisposizione":4999,"Ġmancanza":5000,"Ġchiaro":5001,"Ġcinemato":5002,"Ġnazi":5003,"Ġpreso":5004,"ĠArchi":5005,"perti":5006,"ae":5007,"Ġorigini":5008,"Su":5009,"ĠMuseo":5010,"Ġrendere":5011,"dinale":5012,"Ġedizione":5013,"ggiamento":5014,"Ġsfi":5015,"tanze":5016,"Ġsostanze":5017,"Ġdomina":5018,"hr":5019,"lam":5020,"Ġcompet":5021,"Ġfortemente":5022,"Ġcircon":5023,"Ġvul":5024,"Ġfenomeni":5025,"Ġsacri":5026,"Ġinternazionali":5027,"posito":5028,"ĠCin":5029,"Ġparticelle":5030,"Ġpersi":5031,"Ġsostegno":5032,"erona":5033,"mila":5034,"licazione":5035,"ĠMari":5036,"Ġpassare":5037,"ĠQui":5038,"Ġaperto":5039,"vante":5040,"Ġcastello":5041,"ĠAlle":5042,"Ġlimite":5043,"ĠBNE":5044,"Ê¿":5045,"Ġaccetta":5046,"ziende":5047,"Ġcuore":5048,"cid":5049,"Ġregina":5050,"Ġminaccia":5051,"Ġgeomet":5052,"industria":5053,"CO":5054,"vola":5055,"ĠSotto":5056,"Ġnego":5057,"Ġconfi":5058,"dimenti":5059,"ĠCesare":5060,"Ġsopp":5061,"endosi":5062,"ĠCorpo":5063,"Ġpiena":5064,"dali":5065,"burg":5066,"tum":5067,"Ġpasso":5068,"Ġdefinita":5069,"ccato":5070,"phy":5071,"Ġflotta":5072,"Ġpresid":5073,"Ġx":5074,"Ġdisciplina":5075,"Ġtest":5076,"tele":5077,"sistente":5078,"vina":5079,"Ġpianeta":5080,"Ġautore":5081,"appro":5082,"Ġspecifica":5083,"dazione":5084,"Ġsolare":5085,"omenti":5086,"ĠCasa":5087,"Ġguerre":5088,"Ġperdita":5089,"Ġpure":5090,"Ġponti":5091,"ĠUSA":5092,"grado":5093,"Ġcristiani":5094,".),":5095,"Ġproposta":5096,"Ġvoi":5097,"Ġequipa":5098,"Ġprigioni":5099,"Ġregole":5100,"Ġdanno":5101,"Ġpopolari":5102,"ev":5103,"LA":5104,"ettiva":5105,"Ðµ":5106,"Ġinsedia":5107,"ĠKo":5108,"gore":5109,"Ġvalle":5110,"Ġusati":5111,"ĠPapa":5112,"ller":5113,"Ġ35":5114,"ĠCittÃł":5115,"Ġaumento":5116,"Ġitaliane":5117,"ĠBur":5118,"ĠEmi":5119,"ĠConte":5120,"ezione":5121,"Ġelimina":5122,"ĠIr":5123,"Risate":5124,"100":5125,"lustra":5126,"sori":5127,"Ġcorrispond":5128,"Ġdietro":5129,"Ġfisico":5130,"Ġvisita":5131,"Ġvanno":5132,"gini":5133,"unti":5134,"Ġcoppia":5135,"ĠdÃł":5136,"ciata":5137,"ĠPra":5138,"Ġsviluppato":5139,"ĠMicha":5140,"ĠChe":5141,"Ġfondamentali":5142,"Ġgiustizia":5143,"ab":5144,"Ġdirettore":5145,"ĠWe":5146,"stituto":5147,"Ġdedicato":5148,"Ġnacque":5149,"Ġcatte":5150,"uis":5151,"Ġfond":5152,"Ġpian":5153,"Ġsomma":5154,"Ġmari":5155,"Ġpost":5156,"Ġcerti":5157,"Nell":5158,"Ġ500":5159,"metro":5160,"Ġsuolo":5161,"celli":5162,"rittura":5163,"Ġraggiunto":5164,"Ġindipendente":5165,"Ġdep":5166,"Ġprofonda":5167,"ĠPopo":5168,"pito":5169,"Ġsorta":5170,"Ġbizan":5171,"ĠCali":5172,"ĠDon":5173,"Ġdocumenti":5174,"toriale":5175,"Ġimpro":5176,"Ġcento":5177,"Ġprovince":5178,"tis":5179,"off":5180,"terraneo":5181,"phi":5182,"ĠsÃ¬":5183,"lemme":5184,"ttempo":5185,"ĠSam":5186,"Ġtrasmissione":5187,"Ġsullo":5188,"bole":5189,"Ġarcheologi":5190,"Pro":5191,"Ġmedicina":5192,"Ġdiversa":5193,"Ġsegno":5194,"bin":5195,"evale":5196,"Ġfiori":5197,"Ġfrattempo":5198,"intro":5199,"ĠAnna":5200,"pie":5201,"ĠCara":5202,"mmet":5203,"Ġdipende":5204,"Ġcaus":5205,"Ġpensare":5206,"Ġquarto":5207,"Ġpropa":5208,"incen":5209,"ĠCamera":5210,"Ġrapidamente":5211,"ald":5212,"Ġimmediatamente":5213,"inisce":5214,"dotte":5215,"Ġpola":5216,"ĠOltre":5217,"golare":5218,"Ġplu":5219,"Ġeviden":5220,"Ġtraduzione":5221,"Ġmesso":5222,"Ġdecreto":5223,"ĠPoi":5224,"Ġottiene":5225,"ĠInfatti":5226,"gani":5227,"Ġvice":5228,"850":5229,"ĠtribÃ¹":5230,"Ġclassica":5231,"Ġdistribui":5232,"Ġmusicale":5233,"uca":5234,"gnano":5235,"India":5236,"ĠSvi":5237,"Ġdomanda":5238,"ĠHis":5239,"gnata":5240,"Ġcarico":5241,"ĠComp":5242,"Ġcombusti":5243,"gin":5244,"Ġmoderno":5245,"Ġlater":5246,"Ġpoche":5247,"ĠUr":5248,"Ġindividui":5249,"ĠIndia":5250,"Ġebbero":5251,"Ġpossibili":5252,"cona":5253,"ggiorna":5254,"ftware":5255,"Ġspeciale":5256,"Ġalti":5257,"Ġlarga":5258,"Ġvittime":5259,"ĠSc":5260,"Ġcostituzione":5261,"ĠciviltÃł":5262,"ĠGugli":5263,"ĠCapo":5264,"ĠSole":5265,"Ġscienzia":5266,"pla":5267,"gici":5268,"Anche":5269,"Durante":5270,"stante":5271,"Ġdec":5272,"Ġfasi":5273,"IT":5274,"Ġrivolu":5275,"Ġ[.]":5276,"tanta":5277,"Ġmigliaia":5278,"Îµ":5279,"ccor":5280,"Ġmorale":5281,"Ġambito":5282,"Ġvuole":5283,"Ġtempio":5284,"Ġstrade":5285,"Ġesclusivamente":5286,"Ġmetropoli":5287,"ensa":5288,"Ġricevuto":5289,"tun":5290,"Ġdemo":5291,"monte":5292,"ĠCorte":5293,"fon":5294,"Ġrelativamente":5295,"Ġagi":5296,"ĠNapole":5297,"Ġnessun":5298,"ĠBoe":5299,"Ġattacchi":5300,"ĠAu":5301,"Ġusci":5302,"ĠDue":5303,"Ġintelle":5304,"Coordinate":5305,"ĠNelle":5306,"Ġreligiosa":5307,"Ġscritta":5308,"Ġriduzione":5309,"Ġsce":5310,"Ġcongi":5311,"Ġavendo":5312,"Ġbron":5313,"ĠBern":5314,"Ġsettimane":5315,"Ġdiscend":5316,"Ġverde":5317,"Ġprove":5318,"colari":5319,"umere":5320,"Ġantiche":5321,"Ġdoppia":5322,"Ġmona":5323,"civ":5324,"ĠTeo":5325,"ĠMessi":5326,"Ġformare":5327,"vanta":5328,"grazione":5329,"ederazione":5330,"ĠBla":5331,"varono":5332,"Ġgeneri":5333,"En":5334,"zzera":5335,"Ġcompagni":5336,"Ġsottop":5337,"Ġiniziale":5338,"Ġricche":5339,"goli":5340,"Ġpermesso":5341,"Ġrivista":5342,"ĠCanada":5343,"ĠSil":5344,"Ġestremamente":5345,"Ġdiffusa":5346,"umanitÃł":5347,"Ġaddirittura":5348,"Ġscienze":5349,"Ġperiodi":5350,"date":5351,"Ġpresa":5352,"Ġentrambe":5353,"Ġdando":5354,"Ġrifu":5355,"attacco":5356,"estival":5357,"Ġattacco":5358,"rescia":5359,"Ġcostituisce":5360,"Ġcentina":5361,"azienda":5362,"ĠCer":5363,"Ġartisti":5364,"quazione":5365,"Ġtraccia":5366,"Ġpopoli":5367,"Ġmusul":5368,"ĠCala":5369,"ĠFranco":5370,"Ġnessuno":5371,"Ġambiente":5372,"sen":5373,"hu":5374,"Ġlegame":5375,"Ġalcuna":5376,"Ġcristiana":5377,"Ġarchi":5378,"Ġsostanza":5379,"llare":5380,"Ġdiffuso":5381,"Africa":5382,"ĠGar":5383,"ou":5384,"sistono":5385,"ĠFerdin":5386,"eroporto":5387,"tring":5388,"Ġvivere":5389,"Ġmarti":5390,"Ġsala":5391,"hy":5392,"ĠPos":5393,"ĠVia":5394,"mentato":5395,"inge":5396,"ĠSaint":5397,"ĠMarina":5398,"Ġ1980":5399,"Ġpresentano":5400,"Ġcambiamento":5401,"06":5402,"ĠStudi":5403,"ich":5404,"ĠAmeri":5405,"gati":5406,"ĠPrimo":5407,"issi":5408,"mira":5409,"ĠMario":5410,"Ġ1989":5411,"Ġpetro":5412,"Ġsovrani":5413,"ĠCostituzione":5414,"Ġacquisi":5415,"cane":5416,"Ġappunto":5417,"Ġrepubbli":5418,"je":5419,"Ġ1944":5420,"Ġveloce":5421,"Ġcosiddetta":5422,"Austria":5423,"Ġmira":5424,"Ġsvolge":5425,"Ġdefinitivamente":5426,"daglia":5427,"ĠPatri":5428,"Ġscrittore":5429,"ricoltura":5430,"Ġretro":5431,"Ġopport":5432,"Ġcosci":5433,"tions":5434,"Ġstazione":5435,"Ġfrequenza":5436,"ĠIsraele":5437,"gel":5438,"evoluzione":5439,"ssimi":5440,"ĠPio":5441,"espressione":5442,"Ġnazioni":5443,"Ġcanale":5444,"ws":5445,"Ġ|":5446,"Ġsale":5447,"mozione":5448,"ther":5449,"andi":5450,"ĠXII":5451,"viazione":5452,"Ġincor":5453,"Ġscio":5454,"Ġmiglior":5455,"ĠlÃ¬":5456,"Ġcielo":5457,"Ġrichia":5458,"Ġ80":5459,"Ġfondazione":5460,"Ġarriva":5461,"Ġnucleare":5462,"Ġlegisla":5463,"Ġprevede":5464,"ĠGiacomo":5465,"Ġsapere":5466,"Ġspirito":5467,"ĠGal":5468,"Ġdottrina":5469,"Com":5470,"Ġportata":5471,"Ad":5472,"Ġleggere":5473,"Ġspagnolo":5474,"Ġresti":5475,"Ġnazione":5476,"Ġinda":5477,"ender":5478,"ĠNational":5479,"Ġvive":5480,"Ġpropor":5481,"Ġcompeti":5482,"Ġlati":5483,"Ġrea":5484,"Ġtradizionali":5485,"inva":5486,"Ġracco":5487,"Ġcentrali":5488,"Ġavver":5489,"ccademia":5490,"ĠKe":5491,"dÃ¬":5492,"AR":5493,"Ġtera":5494,"Ġcatena":5495,"duca":5496,"grafiche":5497,"ood":5498,"miglia":5499,"universo":5500,"ĠRoy":5501,"vvero":5502,"Ġth":5503,"Ġmettere":5504,"effetto":5505,"ĠXIII":5506,"Ġteorie":5507,"Ġultime":5508,"Ġscher":5509,"gheria":5510,"Ġfram":5511,"ĠSve":5512,"usalemme":5513,"Ġprogetta":5514,"ternet":5515,"Ġterrestre":5516,"matici":5517,"ĠWar":5518,"Ġutilizzando":5519,"ĠAfrica":5520,"Ġquota":5521,"ĠKar":5522,"ore":5523,"ĠDNA":5524,"Ġ1970":5525,"Ġvoto":5526,"Ġfilosofo":5527,"bina":5528,"Ġ45":5529,"Ġflusso":5530,"edono":5531,"Ġvesco":5532,"ĠComun":5533,"Ġattraversa":5534,"ĠCle":5535,"ontana":5536,"oniche":5537,"ĠGuglielmo":5538,"Ġazione":5539,"ĠParlamento":5540,"glianza":5541,"Ġdovrebbe":5542,"Ġfamoso":5543,"Ġmeccanica":5544,"Ġpubblicazione":5545,"ĠmodalitÃł":5546,"Ġscrittura":5547,"Ġcontribu":5548,"ĠBru":5549,"ling":5550,"ĠPale":5551,"ĠBassi":5552,"gate":5553,"Ã¡n":5554,"fabe":5555,"itato":5556,"tteri":5557,"ĠSuccessore":5558,"Ġguada":5559,"Ġaziende":5560,"erali":5561,"Ġnato":5562,"mal":5563,"autori":5564,"Ġprevalentemente":5565,"manu":5566,"Ġrifor":5567,"ĠentrÃ²":5568,"Ġiniziato":5569,"Ġsettimana":5570,"Ġassor":5571,"Ġlegato":5572,"Ġdramma":5573,"Ġlago":5574,"Ġessen":5575,"Ġarrivare":5576,"mpre":5577,"Questa":5578,"Ġesempi":5579,"deo":5580,"zionari":5581,"Ġegi":5582,"Ġtratti":5583,"Ġgiro":5584,".[":5585,"ĠdensitÃł":5586,"ceano":5587,"ĠMin":5588,"Ġnemico":5589,"ĠCavaliere":5590,"Ġfigure":5591,"Ġrientra":5592,"05":5593,"pis":5594,"contra":5595,"Ġaccusa":5596,"ĠXIV":5597,"Ġran":5598,"Ġlum":5599,"estate":5600,"kov":5601,"Ġuccelli":5602,"ĠFla":5603,"amore":5604,"Ġfia":5605,"messa":5606,"Ġconsiderati":5607,"augu":5608,"gramma":5609,"ĠNazioni":5610,"mobili":5611,"umu":5612,"Ġspecialmente":5613,"Ġricerche":5614,"ĠGerusalemme":5615,"ĠJose":5616,"ĠItaliana":5617,"Ġamericano":5618,"Ġreligioso":5619,"tismo":5620,"Ġpelli":5621,"Ġdor":5622,"viato":5623,"Ġnormale":5624,"Ġkm":5625,"Ġsolamente":5626,"ĠMil":5627,"Ġdecenni":5628,"zionato":5629,"ĠBul":5630,"soluzione":5631,"the":5632,"Ġsopravvi":5633,"Ġdovette":5634,"Ġlegati":5635,"Ġconsiglio":5636,"Ġchilometri":5637,"Ġblu":5638,"Quindi":5639,"Ġprecipi":5640,"moto":5641,"Ġdovuta":5642,"rani":5643,"ĠGeno":5644,"sali":5645,"Ġgradi":5646,"04":5647,"Ġgri":5648,"sore":5649,"Ġriconoscimento":5650,"ĠPremio":5651,"ony":5652,"Ġrivel":5653,"tropo":5654,"ot":5655,"anese":5656,"ise":5657,"Ġpoeta":5658,"Ġsegnale":5659,"inosa":5660,"Ġcomunemente":5661,"ficata":5662,"gari":5663,"Ġbuon":5664,"ĠRomano":5665,"Ġchiama":5666,"Ġesseri":5667,"Ġridurre":5668,"ĠMili":5669,"esperienza":5670,"bria":5671,"gallo":5672,"Ġcosiddetto":5673,"Ġcolpo":5674,"ĠValle":5675,"ala":5676,"ĠThomas":5677,"Ġcavallo":5678,"ĠAlberto":5679,"inti":5680,"dori":5681,"Ġpesante":5682,"IV":5683,"Ġsoftware":5684,"Ġgenerazione":5685,"Sono":5686,"hai":5687,"ĠCamp":5688,"ensiva":5689,"ĠTran":5690,"Ġvecchio":5691,"ĠSerie":5692,"Ġscientifico":5693,"Fran":5694,"Ġvariabile":5695,"ux":5696,"AV":5697,"ĠCongresso":5698,"Ġappari":5699,"don":5700,"118":5701,"gar":5702,"Ġpronuncia":5703,"Ġcomponente":5704,"Ġsosp":5705,"ĠCentro":5706,"tratto":5707,"Ġnobile":5708,"Ġnarra":5709,"Ġmonte":5710,"tralia":5711,"resse":5712,"vamento":5713,"Ġfissa":5714,"influenza":5715,"Ġassis":5716,"ĠLega":5717,"Ġalte":5718,"Ġsquadre":5719,"ggeri":5720,"ĠTea":5721,"Ġordini":5722,"ĠInghilterra":5723,"Ġinfini":5724,"Ġaspetto":5725,"Ġscoperto":5726,"ros":5727,"ĠRomani":5728,"asti":5729,"Ġmerito":5730,"Ġchiamati":5731,"Ġdetermin":5732,"Ġinven":5733,"Ġcomposti":5734,"Ġoffer":5735,"Ġisla":5736,"ĠcontinuÃ²":5737,"ĠNapoleone":5738,"ĠXVII":5739,"Ġincontro":5740,"tran":5741,"Ġinde":5742,"Ġsottoline":5743,"gante":5744,"Ġpasse":5745,"Ġ1986":5746,"03":5747,"Ġ1941":5748,"Ġmalattie":5749,"dr":5750,"Ġassun":5751,"Ġvirus":5752,"Ġresponsabile":5753,"Ġstanno":5754,"ĠSanti":5755,"Ġcalore":5756,"Ġpremio":5757,"Ġsemplici":5758,"giosi":5759,"Ġtorre":5760,"Ġvacc":5761,"Ġresp":5762,"wer":5763,"lesias":5764,"eth":5765,"Ġdavvero":5766,"Ġpartiti":5767,"Ġentrare":5768,"ude":5769,"Ġparco":5770,"reste":5771,"Ġesercito":5772,"Ġceri":5773,"ĠPara":5774,"Ġavvenne":5775,"01":5776,"ĠInternet":5777,"Ġillustra":5778,"ttico":5779,"Ġcardinale":5780,"talmente":5781,"Ġpan":5782,"Ġcaratterizzato":5783,"ĠMadonna":5784,"Ġaccesso":5785,"IS":5786,"mori":5787,"Ġdanne":5788,"Ïĥ":5789,"Ġinteressa":5790,"Ġcrista":5791,"Ġprogrammi":5792,"dam":5793,"Ġpoteri":5794,"Ġbritannica":5795,"Ġcostruita":5796,"Ġmisure":5797,"Ġappartenenti":5798,"Ġonde":5799,"Ġconi":5800,"Ġversioni":5801,"Ġpreferi":5802,"Ġbasato":5803,"Ġfondato":5804,"aff":5805,"ramento":5806,"Ġnobili":5807,"tui":5808,"tmo":5809,"dire":5810,"ĠFe":5811,"Ġriesce":5812,"Li":5813,"Ġvoti":5814,"Ġelen":5815,"pati":5816,"OR":5817,"giche":5818,"Ġgenitori":5819,"Ġdura":5820,"Ġnecessaria":5821,"Ġ1988":5822,"ppure":5823,"Ġbambino":5824,"Ġmente":5825,"Ġribelli":5826,"sÃ¬":5827,"Ġdiscorso":5828,"ĠMat":5829,"ashington":5830,"Ġculturali":5831,"Ġvesti":5832,"Ġinaugu":5833,"ĠUno":5834,"Ġcapire":5835,"Ġconsente":5836,"ĠVilla":5837,"gas":5838,"ĠIX":5839,"Ġpotenziale":5840,"ĠPredecessore":5841,"Ġcelebre":5842,"ĠBerlino":5843,"ciare":5844,"Ġstatunitensi":5845,"vra":5846,"gliato":5847,"Ġtesi":5848,"ĠVir":5849,"Ġtraspor":5850,"ĠdivinitÃł":5851,"Ġdistur":5852,"Ġapposi":5853,"ĠMichele":5854,"Ġgara":5855,"Ġebraica":5856,"coni":5857,"Ġstimo":5858,"Ġfabbrica":5859,"Ġamericani":5860,"Ġattuale":5861,"Ġproteine":5862,"Ġ32":5863,"Ġtitoli":5864,"Ġuniversale":5865,"angolo":5866,"ĠPadova":5867,"ĠMentre":5868,"Ġstraordina":5869,"Ġtemperature":5870,"Ġcervello":5871,"tela":5872,"Ġlavorare":5873,"Ġoccidentali":5874,"Ġfamili":5875,"Ġspedizione":5876,"cuno":5877,"Ġipotesi":5878,"Ġcoinci":5879,"Ġcomunale":5880,"07":5881,"Ġrappresentazione":5882,"ĠFerra":5883,"arrivo":5884,"Ġprefer":5885,"Ġpartecipazione":5886,"Ġriprese":5887,"ĠRichard":5888,"amministrazione":5889,"Ġcombattimento":5890,"Ġsbar":5891,"Ġrazzi":5892,"ĠBol":5893,"alta":5894,"Ġdeciso":5895,"Ġpala":5896,"Ġrelativa":5897,"mettere":5898,"Ġconsul":5899,"Ġpio":5900,"Ġpom":5901,"Ġrecenti":5902,"cht":5903,"Ġspecifico":5904,"Ġrappresentato":5905,"Ġscrivere":5906,"ĠSindaco":5907,"ondere":5908,"ĠAlb":5909,"Ġequival":5910,"Ġsuccessive":5911,"ĠClassi":5912,"Ġ300":5913,"Ġindiri":5914,"Ġoro":5915,"Ġchiave":5916,"Ġsegue":5917,"Ġcittadino":5918,"ĠIndi":5919,"Ġirre":5920,"ĠStan":5921,"Ġistituzioni":5922,"osla":5923,"Ġfratelli":5924,"ques":5925,"ĠDia":5926,"Ð½":5927,"Ġbandi":5928,"ressa":5929,"Ġanalisi":5930,"ĠTos":5931,"ĠHol":5932,"Ġlin":5933,"Ġlegitti":5934,"ĠcominciÃ²":5935,"Ġcolonna":5936,"Ġsuccessione":5937,"ggiata":5938,"mbro":5939,"Ġfusione":5940,"antico":5941,"bbio":5942,"occupazione":5943,"Ġripet":5944,"Ã³n":5945,"lese":5946,"ĠHit":5947,"Ġrealizzare":5948,"dette":5949,"Ġosta":5950,"Ġprevisto":5951,"Ġbom":5952,"glione":5953,"ĠRai":5954,"Ġnutri":5955,"Ġriferisce":5956,"Ġmonta":5957,"prÃ¬":5958,"ĠAndrea":5959,"Ġfianco":5960,"ĠPan":5961,"Ġtrovato":5962,"mosfera":5963,"Ġ0001":5964,"Ġritiene":5965,"Ġformula":5966,"urce":5967,"Ġogn":5968,"Ġavvenuta":5969,"Egitto":5970,"iss":5971,"Ġoper":5972,"Ġconsigli":5973,"Ġafri":5974,"chino":5975,"Ġsupre":5976,"ĠAi":5977,"tuna":5978,"Ġtrasfer":5979,"icoli":5980,"ĠAsia":5981,"dersi":5982,"Ġbasata":5983,"Ġresa":5984,"Ġattivo":5985,"ĠVittorio":5986,"Ġetni":5987,"dom":5988,"ĠFranci":5989,"inasci":5990,"gri":5991,"ĠGali":5992,"Ġucciso":5993,"Ġeredi":5994,"Ġbelli":5995,"Ġabbi":5996,"Ġulteriori":5997,"Ġmorto":5998,"Ġ1960":5999,"Ġdifferenze":6000,"vision":6001,"Ġnasce":6002,"Ġaggiorna":6003,"Ġbilan":6004,"Ġvale":6005,"Ġrigi":6006,"Ġrisale":6007,"terio":6008,"Ġtel":6009,"ĠprobabilitÃł":6010,"contro":6011,"Ġconven":6012,"Ġtan":6013,"ĠKu":6014,"testo":6015,"obiettivo":6016,"Ġdoppio":6017,"Ġ1940":6018,"chen":6019,"lun":6020,"pato":6021,"ĠLuca":6022,"ĠvirtÃ¹":6023,"mbur":6024,"landia":6025,"ugosla":6026,"Ġintellettu":6027,"Ġiniziarono":6028,"Ġcere":6029,"Ġcinqu":6030,"Ġfornire":6031,"enz":6032,"grafo":6033,"librio":6034,"Ġdena":6035,"Ġlabora":6036,"Ġinteressi":6037,"ced":6038,"Ġutile":6039,"Ġamico":6040,"mora":6041,"Ġraggio":6042,"Ġartifi":6043,"Ġprovve":6044,"cilio":6045,"ĠCosÃ¬":6046,"Ġricevette":6047,"Ġmolecole":6048,"ĠNicola":6049,"Ġfanteria":6050,"ĠAna":6051,"ĠpassÃ²":6052,"Ġutilizzate":6053,"Ġcambi":6054,"Ġtrovava":6055,"Ġregionale":6056,"istico":6057,"ĠMusi":6058,"Asia":6059,"ÑĢ":6060,"Ġdepu":6061,"Ġcontratto":6062,"Äĩ":6063,"ĠWashington":6064,"ĠLeon":6065,"vimento":6066,"articolo":6067,"Ġcarbonio":6068,"ssia":6069,"Ġcompreso":6070,"Ġreti":6071,"Ġlaure":6072,"uogo":6073,"cenze":6074,"Ġonore":6075,"ĠNove":6076,"Ġscompar":6077,"Ġprezzo":6078,"scri":6079,"Ġcondu":6080,"ĠLoren":6081,"Ġtasso":6082,"fficienza":6083,"Ġattuali":6084,"ĠIni":6085,"inea":6086,"Ġpotente":6087,"Ġrifiu":6088,"Ġlimiti":6089,"ww":6090,"cello":6091,"Ġsani":6092,"ĠProvin":6093,"Ro":6094,"Ġpieno":6095,"Ġcostretto":6096,"tipo":6097,"interpre":6098,"Ġevidente":6099,"Ġpossesso":6100,"Ġpilota":6101,"magne":6102,"Ġ1985":6103,"Ġastron":6104,"Ġspo":6105,"ĠSenato":6106,"Ġcambiamenti":6107,"Ġricostrui":6108,"Sa":6109,"Ġflui":6110,"invasione":6111,"Ġstadio":6112,"ĠMatte":6113,"Ġ1979":6114,"08":6115,"Ġza":6116,"ĠMolti":6117,"biettivi":6118,"edificio":6119,"pote":6120,"Ġulteriormente":6121,"Ġglobale":6122,"Ġcause":6123,"Ġpunta":6124,"ĠConf":6125,"ĠFerdinando":6126,"Ġ1968":6127,"ĠMediterraneo":6128,"Ġminimo":6129,"pevole":6130,"Ġprecedenza":6131,"Ġsera":6132,"har":6133,"Ġaumentare":6134,"Ġsiti":6135,"onendo":6136,"introduzione":6137,"yl":6138,"viamo":6139,"Ġcommis":6140,"tria":6141,"Ġzu":6142,"ceo":6143,"ĠDom":6144,"ĠMedioevo":6145,"Ġstrato":6146,"Ġvantaggio":6147,"Ġvinci":6148,"Ġambienti":6149,"Ġconosciuta":6150,"02":6151,"Ġdotato":6152,"ĠLomb":6153,"à½":6154,"Ġdelega":6155,"ĠAm":6156,"Ġproduce":6157,"Ġmodu":6158,"Ġpossiede":6159,"ĠMartin":6160,"Ġmuta":6161,"Ġtornare":6162,"Ġipoti":6163,"Ġperdite":6164,"Ġorganismi":6165,"civescovo":6166,"raq":6167,"Ġemo":6168,"Ġsanto":6169,"Ġcarne":6170,"Ġcontribui":6171,"Ġ1987":6172,"Ġumi":6173,"tha":6174,"Ġcompleto":6175,"angeli":6176,"Ġdisponibili":6177,"dimen":6178,"Ġbombarda":6179,"Ġraffor":6180,"Ġcircui":6181,"Ġdistruzione":6182,"Ġdichiarato":6183,"ressione":6184,"ttive":6185,"Ġpercen":6186,"ĠPala":6187,"Ġsanti":6188,"Ġappre":6189,"á¸":6190,"Ġcorrela":6191,"lis":6192,"sercito":6193,"Ġimmagina":6194,"ĠSolo":6195,"Ġnapole":6196,"Ġallu":6197,"Ġepisodi":6198,"Ġcostituiscono":6199,"cet":6200,"Ġripa":6201,"ĠMel":6202,"ĠStefano":6203,"Ġbatte":6204,"Ġ1976":6205,"Ġlavoratori":6206,"Ġcamm":6207,"ducia":6208,"ĠMichael":6209,"aspetto":6210,"Ġiso":6211,"ingresso":6212,"Ġfesta":6213,"Ġassai":6214,"Ġtensione":6215,"Ġconservazione":6216,"Ġvento":6217,"ĠOriente":6218,"gona":6219,"identi":6220,"Ġformano":6221,"Ġnotizie":6222,"].":6223,"Ġregista":6224,"Ġcapitali":6225,"09":6226,"Ġrussa":6227,"Ġimpossi":6228,"ĠCampi":6229,"Ġgradu":6230,"Ġagrico":6231,"ticamente":6232,"Ġprocedu":6233,"De":6234,"ĠMosca":6235,"dusse":6236,"Ġstorie":6237,"genze":6238,"Ġcapol":6239,"Ġmarito":6240,"Ġecclesias":6241,"Ġnessuna":6242,"ĠTeatro":6243,"Ġpenisola":6244,"Ġindu":6245,"Ġfeli":6246,"ĠpersonalitÃł":6247,"dute":6248,"forte":6249,"fini":6250,"Ġ1984":6251,"ye":6252,"Ġprivile":6253,"ĠBrasile":6254,"venza":6255,"Ġimpa":6256,"Ġarma":6257,"fficienti":6258,"Ġascol":6259,"Ġsingoli":6260,"Ġ1942":6261,"ĠGian":6262,"sche":6263,"ĠEgitto":6264,"cone":6265,"esca":6266,"ete":6267,"Ġdenaro":6268,"ĠSto":6269,"ĠBatti":6270,"Mar":6271,"bol":6272,"Ġriconosciuto":6273,"accordo":6274,".).":6275,"Ġspazi":6276,"yer":6277,"Ġpotesse":6278,"ĠAlex":6279,"Ġsoff":6280,"Alc":6281,"Ġraggi":6282,"pero":6283,"Ġmanu":6284,"Ġraggiunge":6285,"ĠTar":6286,"ducazione":6287,"Ġsuono":6288,"cho":6289,"Ġsituata":6290,"Ġnotizia":6291,"Ġconfigu":6292,"Ġ1975":6293,"Ã¼r":6294,"ĠresponsabilitÃł":6295,"Ġequa":6296,"Ġlegata":6297,"tualmente":6298,"Ġinsegna":6299,"Ġviolenza":6300,"Ġridu":6301,"Ġflu":6302,"Ġesterno":6303,"Ġ1974":6304,"dese":6305,"Chi":6306,"Ġmedici":6307,"Ġevento":6308,"ĠTren":6309,"Ġmaschile":6310,"Ġdefinire":6311,"Ġsituato":6312,"ĠverrÃł":6313,"ccar":6314,"corsi":6315,"Ġrichiede":6316,"Ġdebole":6317,"ĠInter":6318,"Ġcercare":6319,"Ġingegn":6320,"Ġinnova":6321,"chel":6322,"urre":6323,"ÏĢ":6324,"Fi":6325,"Ġdibatti":6326,"ĠAli":6327,"ostro":6328,"Ġdiam":6329,"Ġampio":6330,"ĠMessico":6331,"Ġalleati":6332,"kg":6333,"mbas":6334,"fornia":6335,"Ġtrasformazione":6336,"Ġtrans":6337,"Ġturi":6338,"Ġillu":6339,"ĠNuovo":6340,"Ġparro":6341,"Ġconvo":6342,"Ġdenominazione":6343,"Ġalbum":6344,"kistan":6345,"Ġcru":6346,"Ġdeterminato":6347,"ipotesi":6348,"Ġsostituito":6349,"iti":6350,"tudine":6351,"ĠOgni":6352,"Ġebraico":6353,"ottobre":6354,"Ġmacchine":6355,"album":6356,"Ġcentinaia":6357,"ĠMinistero":6358,"Ġpazienti":6359,"cesa":6360,"Ġcollabora":6361,"rla":6362,"ĠGruppo":6363,"Ġapplicazioni":6364,"alitÃł":6365,"Ġmete":6366,"bor":6367,"ccidentale":6368,"Ġcanzone":6369,"AC":6370,"imm":6371,"Ġgovernatore":6372,"degna":6373,"Ġportoghe":6374,"citi":6375,"Ġmaestro":6376,"Ġcroce":6377,"Ġamericana":6378,"Ġnorme":6379,"stato":6380,"Ġorganizzazioni":6381,"Ho":6382,"Ġ1982":6383,"ĠGenova":6384,"Ġ1939":6385,"Ġcoscienza":6386,"Ġdocumento":6387,"truttura":6388,"Ġtenta":6389,"ereo":6390,"Ġcalcolo":6391,"ĠBasi":6392,"',":6393,"Ġaerea":6394,"Ġcinesi":6395,"Ġcamera":6396,"ameri":6397,"ĠSvizzera":6398,"Ġmandato":6399,"Ġreligiosi":6400,"Ġdiffuse":6401,"pponesi":6402,"Ġsopravvis":6403,"ande":6404,"Ġsinto":6405,"gion":6406,"Ġguarda":6407,"Ġpesanti":6408,"Ġmessi":6409,"ttanta":6410,"Ġmaggiormente":6411,"leria":6412,"Ġclassico":6413,"inante":6414,"Ġmette":6415,"arsa":6416,"Ġcoda":6417,"oggi":6418,"Ġsubi":6419,"Ġred":6420,"Ġtenere":6421,"erito":6422,"Ġ*":6423,"Ġqualcuno":6424,"ettati":6425,"ĠOrdine":6426,"tribu":6427,"titudine":6428,"ie":6429,"resa":6430,"tretti":6431,"Ġqualunque":6432,"ossa":6433,"ĠPeter":6434,"ĠHitler":6435,"ĠDra":6436,"ĠRoberto":6437,"tine":6438,"bat":6439,"ĠÄ":6440,"Ġquartiere":6441,"Ġsve":6442,"Ġrappresentano":6443,"Ġuniversi":6444,"craina":6445,"Ġcoe":6446,"net":6447,"Ġguerri":6448,"Ġfaceva":6449,"Ba":6450,"Ġfinali":6451,"ovest":6452,"Ġdisper":6453,"Asse":6454,"Ġscontro":6455,"dÃ²":6456,"vise":6457,"Ġweb":6458,"Ġragioni":6459,"Ġbanca":6460,"Ġlogica":6461,"ĠCapi":6462,"ĠSavo":6463,"Ġeconomiche":6464,"Ġstrati":6465,"Ġdimostrato":6466,"Ġintelli":6467,"Ġ1972":6468,"Ġlasciare":6469,"Ġpromos":6470,"Ġsigno":6471,"Ġsufficiente":6472,"Ġ1973":6473,"Ġgiapponesi":6474,"cke":6475,"Ġpiatta":6476,"Ġenerge":6477,"doro":6478,"ĠRoyal":6479,"Ġmagis":6480,"Ġeuropee":6481,"Ġpref":6482,"Ġcorrispondenza":6483,"Ġ1978":6484,"Ġindipendenti":6485,"cies":6486,"rane":6487,"ast":6488,"Ġghiaccio":6489,"Ġseguire":6490,"Ġconsoli":6491,"Ġobiettivi":6492,"Ġrespi":6493,"Ġcondivi":6494,"Ġfrazione":6495,"fu":6496,"Ġcoste":6497,"Ġfecero":6498,"orghe":6499,"ville":6500,"shi":6501,"Ġmodifiche":6502,"Ġconsumo":6503,"inca":6504,"Ġattenzione":6505,"leo":6506,"Ġsostiene":6507,"ĠAngel":6508,"imento":6509,"Ġtemi":6510,"Ġmedievale":6511,"Ġtipico":6512,"Ġvinto":6513,"Ġstretto":6514,"raeli":6515,"Ġdiventato":6516,"well":6517,"Ne":6518,"tivitÃł":6519,"Ġaposto":6520,"ssime":6521,"ander":6522,"Ġpena":6523,"ĠAnti":6524,"zu":6525,"erati":6526,"Ġaperta":6527,"Ġgol":6528,"ĠlÃł":6529,"ggiore":6530,"eronautica":6531,"Ġ1969":6532,"orno":6533,"isse":6534,"genti":6535,"eto":6536,"Ġtab":6537,"Ġinteramente":6538,"Ñģ":6539,"Ġtradizioni":6540,"ĠAncona":6541,"importanza":6542,"ĠSiria":6543,"Ġtuttora":6544,"ermo":6545,"Ġfoglie":6546,"logici":6547,"Ġincen":6548,"ĠPortogallo":6549,"Ġdetti":6550,"ĠSuccessivamente":6551,"tarie":6552,"torie":6553,"Ġcali":6554,"Ġorbi":6555,"Ġsessuale":6556,"ĠCra":6557,"Ġelevata":6558,"Ġprofon":6559,"Ġcoordina":6560,"Ġdeten":6561,"Ġfacile":6562,"inato":6563,"Ġmobili":6564,"ĠCalifornia":6565,"ĠGoverno":6566,"get":6567,"Ġå":6568,"ĠprofonditÃł":6569,"Ġcompresa":6570,"ĠQuindi":6571,"ãģ":6572,"argento":6573,"Ġreligiose":6574,"Ġinterni":6575,"Ġimprese":6576,"zionalitÃł":6577,"Ġ1981":6578,"Ġdefinisce":6579,"rocco":6580,"Ġrie":6581,"ciclo":6582,"apertura":6583,"Ġelevato":6584,"ĠGri":6585,"Ġstatale":6586,"ĠItaliano":6587,"ĠLos":6588,"Ġ1946":6589,"Ġefficace":6590,"altezza":6591,"gÃ²":6592,"Ġgiar":6593,"win":6594,"ĠSardegna":6595,"Ġaccol":6596,"tec":6597,"riano":6598,"Ġvertica":6599,"Ġbatteri":6600,"Ġsesso":6601,"rom":6602,"Ġsegretario":6603,"dano":6604,"Ġfinanzia":6605,"Ġdisegno":6606,"Ġinc":6607,"Ġvuoto":6608,"Ġvicina":6609,"Ġdisponibile":6610,"ĠVienna":6611,"Ġcattolico":6612,"Ġimpianti":6613,"Ġconcezione":6614,"tania":6615,"Ġarmati":6616,"Ġ36":6617,"ĠDivisione":6618,"Ġarea":6619,"Ġsintesi":6620,"Ġbianca":6621,"Ġnotare":6622,"Ãº":6623,"simi":6624,"Ġtraffi":6625,"Ġsotti":6626,"Ġricorda":6627,"intervento":6628,"Ġcorrisponde":6629,"detta":6630,"viamente":6631,"Î»":6632,"SL":6633,"inione":6634,"Ġocc":6635,"ffe":6636,"Ġdigitale":6637,"ologo":6638,"Ġtecnologie":6639,"fatti":6640,"ĠCostantinopoli":6641,"pti":6642,"Ġcirco":6643,"Ġfrutto":6644,"ĠMare":6645,"Ġsedi":6646,"gando":6647,"ciatore":6648,"unione":6649,"Ġnormalmente":6650,"Ġanda":6651,"rona":6652,"ĠDomen":6653,"ĠQuest":6654,"Ġcaratterizzata":6655,"Ġaddestra":6656,"mith":6657,"Ġtrenta":6658,"kin":6659,"Ġ1983":6660,"Ġrese":6661,"Ġrisolvere":6662,"Ġpezzi":6663,"entro":6664,"Ġsoluzioni":6665,"Ġpotenze":6666,"male":6667,"Ġconseguenze":6668,"meo":6669,"Ġusando":6670,"Ġmeccanismo":6671,"tensione":6672,"logiche":6673,"Ġclassificazione":6674,"ĠSca":6675,"ĠPom":6676,"Ġbel":6677,"ĠarrivÃ²":6678,"Ġlasciando":6679,"erita":6680,"oss":6681,"ĠTele":6682,"Ġvisibile":6683,"ĠSeconda":6684,"Ġ33":6685,"Ġindicato":6686,"Ġextra":6687,"Ġpittore":6688,"trinse":6689,"Ġaumenta":6690,"Ġesterna":6691,"Ġ1967":6692,"Ġradiazione":6693,"All":6694,"Ġassume":6695,"Ġpsico":6696,"valieri":6697,"Ġpatrimonio":6698,"Ġcorsa":6699,"Ġassicu":6700,"UR":6701,"Ġsig":6702,"Ġvecchia":6703,"ologico":6704,"ĠSavoia":6705,"Ġaffrontare":6706,"glieria":6707,"Ġraggiunse":6708,"Ġcilin":6709,"ĠLeone":6710,"Ġobbliga":6711,"Ġdomen":6712,"Ġpartenza":6713,"Ġportando":6714,"erebbe":6715,"ĠJack":6716,"ĠSS":6717,"Ġigno":6718,"Ġlettura":6719,"Ġnemici":6720,"Ġconseguente":6721,"Ġbritannici":6722,"Ġmito":6723,"Ġscrive":6724,"Ġvigore":6725,"ĠDar":6726,"bis":6727,"ĠtrovÃ²":6728,"Ġsettanta":6729,"ue":6730,"ng":6731,"cto":6732,"Ġditta":6733,"etna":6734,"ĠWhi":6735,"Ġintrodotto":6736,"Ġindustriali":6737,"Cos":6738,"Ġcategorie":6739,"800":6740,"Ġpubblicata":6741,"Ġquadro":6742,"Ġbronzo":6743,"ball":6744,"Ġespressi":6745,"ĠLouis":6746,"unzione":6747,"Ġproposito":6748,"ĠLea":6749,"Ġille":6750,"bone":6751,"esterno":6752,"Ġfondatore":6753,"vidu":6754,"ĠLiber":6755,"gola":6756,"Ġ1918":6757,"ĠSol":6758,"Ġemi":6759,"Ġanimale":6760,"equazione":6761,"rur":6762,"usura":6763,"Ġspia":6764,"Ġcannoni":6765,"Ġren":6766,"Ġrecord":6767,"Ġsorella":6768,"Ġinferiori":6769,"inismo":6770,"Ġvescovi":6771,"vino":6772,"psi":6773,"Ġstri":6774,"Ġultimo":6775,"Ġospita":6776,"ttocento":6777,"Ġregolare":6778,"vy":6779,"Ġonda":6780,"Ġragg":6781,"rande":6782,"Ġdifferenzia":6783,"Ġscelto":6784,"tenze":6785,"Ġtende":6786,"vente":6787,"Ġbelle":6788,"pus":6789,"ĠVincen":6790,"Ġuguale":6791,"emonte":6792,"ĠCaro":6793,"ĠSoci":6794,"Ġconsiderare":6795,"ĠMac":6796,"Ġ1971":6797,"Ġantici":6798,"Ġrelativi":6799,"fro":6800,"Ġpassi":6801,"parte":6802,"Ġspirituale":6803,"uscita":6804,"Ġrealizzata":6805,"ĠYa":6806,"Ġricorr":6807,"Ġelettroni":6808,"Ġracconto":6809,"maso":6810,"Ġposteriore":6811,"Ġavversa":6812,"ĠSociali":6813,"ĠDes":6814,"mpie":6815,"Ġmonastero":6816,"Ġsinte":6817,"Ġospe":6818,"Ġturisti":6819,"ĠJoseph":6820,"Ġletto":6821,"Ġ1950":6822,"Ġspagnola":6823,"Ġgala":6824,"Ġpart":6825,"mendo":6826,"Ġdescrive":6827,"Ġcalcola":6828,"Ġlontano":6829,"ĠVIII":6830,"dum":6831,"Ġfuga":6832,"Ġorientali":6833,"ĠSocietÃł":6834,"trus":6835,"Ġ400":6836,"Ġteore":6837,"Ġfeste":6838,"ance":6839,"Ġmuseo":6840,"ĠUl":6841,"Ġdescritto":6842,"Ġsport":6843,"autoritÃł":6844,"Ġpresentato":6845,"architettura":6846,"terne":6847,"Ġsessanta":6848,"Ġdiametro":6849,"Ġaria":6850,"ĠGrazie":6851,"Ġnotevolmente":6852,"Ġvillaggio":6853,"Ġpromuo":6854,"Ġleggenda":6855,"ĠMatteo":6856,"ĠNello":6857,"Ġstima":6858,"Ġarticoli":6859,"Ġtessuto":6860,"Ġstatua":6861,"stanti":6862,"bate":6863,"ppie":6864,"Ġcattedrale":6865,"ellate":6866,"Ġcampagne":6867,"Ġirri":6868,"any":6869,"Ġriscontra":6870,"Ġaccura":6871,"mbra":6872,"Ġatomi":6873,"ÑĤ":6874,"Ġfronti":6875,"Ġcombattere":6876,"\";":6877,"ĠGiulio":6878,"Ġdeposi":6879,"Ġcappella":6880,"peri":6881,"Ġcurva":6882,"Negli":6883,"Ġ120":6884,"Ġpossano":6885,"ĠMarche":6886,"\":":6887,"ĠComune":6888,"Ġ1964":6889,"ĠMy":6890,"Ġcontrasto":6891,"anzer":6892,"ĠInternazionale":6893,"--":6894,"Ġvasta":6895,"ĠAugusto":6896,"uola":6897,"Istituto":6898,"Ġpersino":6899,"ggimento":6900,"Ġdefinitiva":6901,"ettero":6902,"vallo":6903,"%.":6904,"Ġprivata":6905,"ĠEssa":6906,"ĠCorea":6907,"ferenza":6908,"minio":6909,"Ġesecu":6910,"Ġdeser":6911,"CA":6912,"mante":6913,"edizione":6914,"Ġcanali":6915,"ĠBatta":6916,"Ġconsiderazione":6917,"Ġmatrice":6918,"Ġliquido":6919,"Ġ1947":6920,"inchÃ©":6921,"ado":6922,"Ġcambiare":6923,"ĠLeo":6924,"Ġreci":6925,"matiche":6926,"Ġtraffico":6927,"Ġund":6928,"Ġstrettamente":6929,"Ġlasciato":6930,"ĠPaci":6931,"ĠSignore":6932,"Ġanglo":6933,"Ġcrescente":6934,"Ġselva":6935,"Ġpreghi":6936,"Ġ1977":6937,"Ġbis":6938,"rum":6939,"Ġscambio":6940,"Ġarabo":6941,"Ġacido":6942,"Ġconcentrazione":6943,"fero":6944,"dimensi":6945,"Ġlancio":6946,"ĠMauri":6947,"Ġprimavera":6948,"Ġsugger":6949,"ĠImpero":6950,"vviso":6951,"pecies":6952,"Ġsostenere":6953,"Ġstranieri":6954,"collo":6955,"udio":6956,"Ġsequenza":6957,"Ġpresi":6958,"Ġ1948":6959,"tuario":6960,"Ġorizz":6961,"Ġricom":6962,"Ġaiuta":6963,"Ġfarlo":6964,"Ġcera":6965,"osserva":6966,"rici":6967,"Ġrami":6968,"Ġmedie":6969,"MS":6970,"uss":6971,"Ġtenuto":6972,"Ġciascuna":6973,"Ġzo":6974,"ĠSebbene":6975,"Ġcittadina":6976,"erare":6977,"dove":6978,"Ġattiva":6979,"Ġperfetta":6980,"mas":6981,"Ġripresa":6982,"Ġcontinui":6983,"vre":6984,"],":6985,"Ġbasilica":6986,"Ġrilievo":6987,"ĠWin":6988,"armata":6989,"Ġcorrispondente":6990,"Ġsegni":6991,"ĠScri":6992,"marono":6993,"erano":6994,"ĠBud":6995,"Ġimplica":6996,"rola":6997,"Ġestin":6998,"kispecies":6999,"Ġunica":7000,"As":7001,"ĠLorenzo":7002,"solini":7003,"aprile":7004,"ĠShi":7005,"vedi":7006,"Ġcontributo":7007,"Ġcapitano":7008,"Ġriven":7009,"ĠAni":7010,"mil":7011,"Ġcoali":7012,"Ġarte":7013,"Ġnostre":7014,"Ġciascuno":7015,"Ġcapito":7016,"Ġsba":7017,"Ġdar":7018,"Ġcas":7019,"Ha":7020,"Ġassoluto":7021,"her":7022,"ĠZe":7023,"mette":7024,"ĠandÃ²":7025,"Ġrotazione":7026,"aiuto":7027,"Ġalberi":7028,"Ġsoci":7029,"Ġdentro":7030,"Ġgaran":7031,"Ġarre":7032,"marsi":7033,"ennio":7034,"zzur":7035,"ĠAristo":7036,"Ġcritiche":7037,"ĠMuse":7038,"ttivi":7039,"ĠBibbia":7040,"Ġcostituzionale":7041,"Ġsimmet":7042,"ĠNovecento":7043,"Ġgiornata":7044,"%)":7045,"source":7046,"Ġmessaggio":7047,"Ã±":7048,"ĠState":7049,"Ġfiumi":7050,"rende":7051,"Ġfattore":7052,"Ġfedeli":7053,"Ġvolumi":7054,"ĠFar":7055,"Ara":7056,"Ġprigionieri":7057,"Ġrestitu":7058,"Ġmill":7059,"ĠSette":7060,"enatore":7061,"ĠSvezia":7062,"loro":7063,"Ġampli":7064,"Ġster":7065,"pran":7066,"Ġlatina":7067,"ĠPlan":7068,"Ġperso":7069,"aumento":7070,"Ġprodotta":7071,"Ġfascia":7072,"Ġvicini":7073,"fficio":7074,"diali":7075,"hann":7076,"ls":7077,"Ġanteriore":7078,"Ġ1962":7079,"Ġtutela":7080,"Ġturno":7081,"Ġcontemporaneamente":7082,"Ġ1963":7083,"ĠSlo":7084,"Ġspaziale":7085,"tane":7086,"ĠEmanu":7087,"Ġlegger":7088,"chestra":7089,"Ġformata":7090,"Ġsorge":7091,"Ġassegnato":7092,"ĠServi":7093,"ĠTru":7094,"ĠtornÃ²":7095,"Ġdivisioni":7096,"Accademia":7097,"Ġpesca":7098,"Ġfiducia":7099,"Ġassoluta":7100,"Ġfacciata":7101,"oneva":7102,"Ġrappresentanti":7103,"Ġvendita":7104,"vest":7105,"Ġzero":7106,"gos":7107,"ult":7108,"Ġquegli":7109,"ĠMagno":7110,"Ġcondotta":7111,"cevano":7112,"Ġpreda":7113,"ĠlasciÃ²":7114,"Ġprecedentemente":7115,"Ġdivina":7116,"Ġscienziati":7117,"ttÃ²":7118,"ziato":7119,"Ġtecnico":7120,"ĠTV":7121,"Ġeconomici":7122,"ĠFrank":7123,"grafici":7124,"ĠWest":7125,"Ġpuni":7126,"Ġdovevano":7127,"Ġcompor":7128,"Alla":7129,"Ġrelative":7130,"ĠPC":7131,"ula":7132,"ettÃ²":7133,"Ġdette":7134,"Ġcondotto":7135,"Ġspecifiche":7136,"á½":7137,"Ġconcorr":7138,"Ġvivono":7139,"inger":7140,"Ġ1965":7141,"Ġtonn":7142,"Ġcavalleria":7143,"asi":7144,"terina":7145,"tilitÃł":7146,"Ġenorme":7147,"Ġquestioni":7148,"guerra":7149,"piÃ¹":7150,"individu":7151,"way":7152,"tamento":7153,"ĠBis":7154,"ade":7155,"cene":7156,"Ġeccezione":7157,"Ġcolonie":7158,"zare":7159,"viera":7160,"ĠPiÃ¹":7161,"Ġ1920":7162,"Ġgiochi":7163,"polo":7164,"Ġ1961":7165,"Ġpubbliche":7166,"scia":7167,"Ġ1966":7168,"Ġportarono":7169,"Ġgla":7170,"itali":7171,"Ġmetallo":7172,"Ġsacerdote":7173,"Ġresis":7174,"Ġfornisce":7175,"lausi":7176,"ĠSBN":7177,"Ġbisogna":7178,"Ġ37":7179,"Ġriserva":7180,"Ġsviluppare":7181,"ĠTurchia":7182,"mazia":7183,"Ġama":7184,"Ġdispositivi":7185,"ĠAma":7186,"metti":7187,"Ġsempli":7188,"Ġgarantire":7189,"ep":7190,"Ġmiei":7191,"Ġvoleva":7192,"wan":7193,"Ġreazioni":7194,"Ġcellula":7195,"Ġtransi":7196,"Ġpasseggeri":7197,"ĠCalabria":7198,"Ġlunghi":7199,"Ġrendendo":7200,"guire":7201,"ĠBoeing":7202,"ĠsposÃ²":7203,"Ġblocco":7204,"Ġpoesia":7205,"uth":7206,"ĠMod":7207,"skij":7208,"Ġlegate":7209,"ĠAlcune":7210,"AS":7211,"Ġaggi":7212,"Ġgreci":7213,"ĠComunista":7214,"nal":7215,"atmosfera":7216,"ĠHenry":7217,"Ġannunciato":7218,"accesso":7219,"troni":7220,"rin":7221,"entato":7222,"unt":7223,"Ġioni":7224,"Ir":7225,"Ġfla":7226,"Ġcerimonia":7227,"mus":7228,"ficano":7229,"ĠIo":7230,"Ġaccel":7231,"landesi":7232,"Ġpredi":7233,"Ġdiscussione":7234,"Ġfortuna":7235,"Ġparlamento":7236,"ĠNu":7237,"Ġnata":7238,"Ġcapace":7239,"Ġfacili":7240,"Ġscul":7241,"ccare":7242,"Ġiper":7243,"Ġottanta":7244,"Ġstatus":7245,"aereo":7246,"Ġraggru":7247,"Ġabbiano":7248,"Ġdevo":7249,"Ġpens":7250,"Ġ75":7251,"ongono":7252,"culi":7253,"dt":7254,"dore":7255,"Ġaiuto":7256,"Ġcampione":7257,"Ġricord":7258,"perto":7259,"Ġelabo":7260,"yo":7261,"Ġcanto":7262,"nale":7263,"Ġporte":7264,"base":7265,"Ġpole":7266,"Ġvariabili":7267,"ĠMax":7268,"sazione":7269,"ĠBelgio":7270,"Ġpercentuale":7271,"ĠChia":7272,"bali":7273,"Ġviss":7274,"agricoltura":7275,"Ġmand":7276,"ologica":7277,"Ġrisoluzione":7278,"Ġfunzionamento":7279,"Ġsuff":7280,"Ġcarro":7281,"ĠOpen":7282,"cell":7283,"ĠViene":7284,"Ġcapoluogo":7285,"vico":7286,"Ġby":7287,"Ġreca":7288,"Ġsape":7289,"Ġmanca":7290,"idro":7291,"Ġbersa":7292,"ny":7293,"Ġumane":7294,"Ġfuggi":7295,"Ġscia":7296,"Ġrappresentati":7297,"Ġbrano":7298,"Ġá¼":7299,"ĠSass":7300,"ttivitÃł":7301,"oscri":7302,"ĠCompa":7303,"Ġdolore":7304,"Ġinsegn":7305,"Ġnavale":7306,"Ġpratiche":7307,"ĠBir":7308,"Na":7309,"Ġrichieste":7310,"Ġdichiara":7311,"Ġracconta":7312,"Ġ1956":7313,"agosto":7314,"Ġeffettivamente":7315,"Ġricca":7316,"Ġ34":7317,"ĠTommaso":7318,"ĠpotÃ©":7319,"ense":7320,"tutto":7321,"Ġseg":7322,"diti":7323,"giani":7324,"Ġsacra":7325,"Ġinterventi":7326,"Ġagenti":7327,"Ġson":7328,"ĠAlpi":7329,"ranio":7330,"Ġclini":7331,"accia":7332,"Ġ42":7333,"Ġimpossibile":7334,"dde":7335,"Ġrifiuta":7336,"Ġtedesche":7337,"Ġconoscere":7338,"ĠCir":7339,"Ġpermettono":7340,"Ġsimboli":7341,"Ġadegu":7342,"raggio":7343,"Ġbiblioteca":7344,"Ġscola":7345,"Ġges":7346,"Ġsposa":7347,"AN":7348,"rli":7349,"Ġsuccessore":7350,"Ġcorrenti":7351,"Ġintende":7352,"Ġdivennero":7353,"ttor":7354,"ĠOpera":7355,"Ġpraticamente":7356,"Ġappartenente":7357,"Ġpermettere":7358,"Ġinterne":7359,"Ġbacino":7360,"Ġvino":7361,"ĠdichiarÃ²":7362,"nali":7363,"Ġavveni":7364,"Ġscontri":7365,"Ġdocumen":7366,"Ġove":7367,"ĠFestival":7368,"Ġriuscirono":7369,"Ġinterpretato":7370,"Ġprevedeva":7371,"Ġalp":7372,"Ġrepubblica":7373,"Ġsot":7374,"Ġ1958":7375,"Ġricostruzione":7376,"ĠBon":7377,"ficÃ²":7378,"tipi":7379,"Ġlenta":7380,"Ġsettori":7381,"Ġcusto":7382,"Ġdista":7383,"ĠCarta":7384,"orum":7385,"Ġtentativi":7386,"pale":7387,"Ġ×":7388,"ruzione":7389,"ges":7390,"enzi":7391,"Ġconverti":7392,"Ġcellulare":7393,"Ġbocca":7394,"Ġconcetti":7395,"ĠAnton":7396,"Ġusate":7397,"Ġspettro":7398,"voro":7399,"Ġtrasferimento":7400,"estero":7401,"ĠBenedetto":7402,"oggetto":7403,"onima":7404,"Ġmotiva":7405,"Ġcolonne":7406,"Ġcolp":7407,"Ġesperienza":7408,"Ġrecupera":7409,"Ġtiro":7410,"Ġquaran":7411,"ctor":7412,"Ġincro":7413,"ĠCoppa":7414,"Ġavvenuto":7415,"Ġprivati":7416,"Ġricordare":7417,"ĠStar":7418,"Ġvaluta":7419,"ranei":7420,"enni":7421,"ĠSara":7422,"gliare":7423,"ĠBattista":7424,"ket":7425,"Ġcontinente":7426,"interesse":7427,"Ã©e":7428,"ĠSalva":7429,"etz":7430,"Ġbanda":7431,"rendi":7432,"Ġcollegamento":7433,"Ra":7434,"Ġgamma":7435,"Ġministri":7436,"ĠTutti":7437,"mburgo":7438,"trato":7439,"Ġviaggi":7440,"ĠCel":7441,"Ġinstalla":7442,"Ġtanti":7443,"Ġarticolo":7444,"Ġpartita":7445,"occa":7446,"Ġlargo":7447,"gliano":7448,"Ġestende":7449,"interpretazione":7450,"Ġtrattati":7451,"Ġinser":7452,"Ð¾Ð":7453,"lievi":7454,"Ġimperatore":7455,"ĠpubblicÃ²":7456,"Ġstabile":7457,"Ġprestazioni":7458,"talo":7459,"ĠFal":7460,"Ġosser":7461,"Ġdesiderio":7462,"Ġgiudizi":7463,"Ġdibattito":7464,"ĠMona":7465,"ĠManuale":7466,"ĠLei":7467,"Ġripr":7468,"ĠBan":7469,"ĠAsso":7470,"foro":7471,"Ġgiudizio":7472,"lei":7473,"Ġparlano":7474,"Ġnipote":7475,"Ġ1936":7476,"Ġgoverni":7477,"Ġresi":7478,"Ġorienta":7479,"ĠLeague":7480,"Ã¢":7481,"Ġ38":7482,"Ġdescrizione":7483,"ĠWikisource":7484,"Ġarres":7485,"ĠOra":7486,"Å¾":7487,"urs":7488,"marca":7489,"sura":7490,"Ġstudiare":7491,"fice":7492,"Ø§":7493,"Ġconfronto":7494,"Ġtracce":7495,"ĠCommissione":7496,"istiche":7497,"Ġasia":7498,"Ġsur":7499,"Ġfarmaci":7500,"IL":7501,"Ġcomprendere":7502,"ĠPalermo":7503,"ĠTali":7504,"Ġsvolta":7505,"Ġrinfor":7506,"Ġdeterminare":7507,"cioÃ¨":7508,"prio":7509,"Ġstili":7510,"Ġavvia":7511,"yage":7512,"300":7513,"ĠÃī":7514,"Ġritar":7515,"Ġconsen":7516,"mmiferi":7517,"pto":7518,"asci":7519,"?\"":7520,"Ġà¤":7521,"Ġaccanto":7522,"Ġrestaura":7523,"Ġeventuali":7524,"Ġgrandezza":7525,"Ġsacche":7526,"Ġlegami":7527,"Ġlimitato":7528,"attenzione":7529,"Ġleggermente":7530,"Ġolimpi":7531,"Ġassumere":7532,"Ġsuperare":7533,"Ġdodici":7534,"Ġcinquanta":7535,"uria":7536,"gentina":7537,"Ġpalla":7538,"trazione":7539,"tuta":7540,"ugh":7541,"Ġoperativo":7542,"Ġmoltip":7543,"Ġpaura":7544,"Ġelettrico":7545,"sario":7546,"Ġsopran":7547,"ĠFonda":7548,"Ġbandiera":7549,"hen":7550,"Ġchiamate":7551,"ek":7552,"Ġcosmo":7553,"Ġtipica":7554,"ova":7555,"plo":7556,"Ġneuro":7557,"Ġrischi":7558,"tle":7559,"ĠaffinchÃ©":7560,"Ġtipicamente":7561,"Ġsituazioni":7562,"ĠElisab":7563,"goro":7564,"ĠKing":7565,"Ġsecondi":7566,"Ġvapore":7567,"Ġanten":7568,"Ġfossili":7569,"Ġcono":7570,"ĠTr":7571,"Ġtemporale":7572,"Ġveicoli":7573,"Ġcomme":7574,"mosi":7575,"Ġultima":7576,"Ġincludono":7577,"Ġtotalmente":7578,"jo":7579,"ĠMinistro":7580,"Ġannuncia":7581,"Ġcristiano":7582,"Ġradici":7583,"duci":7584,"Ġcensi":7585,"Ġampiamente":7586,"Ġmigliorare":7587,"Ġnotevoli":7588,"ĠClasse":7589,"Ġmarcia":7590,"Ġattesta":7591,"Ġrisali":7592,"Ġepisodio":7593,"à¥":7594,"Ġaccumu":7595,"unale":7596,"acido":7597,"ĠErn":7598,"informazione":7599,"Ottocento":7600,"Ġstabil":7601,"Ġinsi":7602,"ziani":7603,"Ġserve":7604,"Ġcontinuo":7605,"Ġrimasto":7606,"ĠLuna":7607,"assedio":7608,"ĠEmanuele":7609,"detti":7610,"Ġ1919":7611,"ttando":7612,"Ġprobabile":7613,"evento":7614,"Ġstoriche":7615,"Ġtardo":7616,"Ġconclusione":7617,"Ġlegale":7618,"ĠAltre":7619,"Ġader":7620,"Ġlimitata":7621,"Ġfondi":7622,"lini":7623,"IA":7624,"loga":7625,"Ġstabilire":7626,"Ġvariazioni":7627,"Ġintitolato":7628,"Ġalimentare":7629,"Ġka":7630,"Ġproveniente":7631,"zer":7632,"Ġspese":7633,"Ġrossa":7634,"sodio":7635,"ĠScho":7636,"Ġridotto":7637,"ĠTorre":7638,"enziali":7639,"ĠCastel":7640,"Ġdivisa":7641,"ĠEdo":7642,"Ġcanti":7643,"tas":7644,"Ġpaci":7645,"Ġaffres":7646,"Ġtessuti":7647,"ggiati":7648,"universitÃł":7649,"bba":7650,"ĠSala":7651,"arci":7652,"Ġfili":7653,"Ġ1938":7654,"ĠReich":7655,"Ġesplici":7656,"ĠDire":7657,"istituzione":7658,"Ġspontan":7659,"'\"":7660,"Ġutenti":7661,"Ġpatria":7662,"ĠBona":7663,"Ġsinda":7664,"Ġcorsi":7665,"anu":7666,"ĠFried":7667,"Ġrelativo":7668,"Ġmissili":7669,"Ġsoffer":7670,"ĠEdizioni":7671,"ĠJohann":7672,"onnello":7673,"Ġlineare":7674,"Applausi":7675,"pres":7676,"Ġprovoca":7677,"Ġmontagna":7678,"Ġessenzialmente":7679,"misti":7680,"ĠNome":7681,"Ġquarta":7682,"anica":7683,"Ġdecisioni":7684,"Mol":7685,"onamento":7686,"Ġedificio":7687,"Fu":7688,"Ġnom":7689,"ĠCine":7690,"Ġnecessari":7691,"Ġchirur":7692,"Ġrinno":7693,"LCCN":7694,"ĠautoritÃłLCCN":7695,"Ġtonnellate":7696,"iche":7697,"Ġfamosa":7698,"Ġesattamente":7699,"Ġsepara":7700,"Nei":7701,"Ġcari":7702,"Ġmercanti":7703,"gger":7704,"Ġnasco":7705,"ĠfinchÃ©":7706,"applicazione":7707,"lÃ²":7708,"Ġfederale":7709,"Ġgrosso":7710,"wood":7711,"Ġcontenente":7712,"Ġaccer":7713,"messi":7714,"Ġ1930":7715,"ĠGabri":7716,"Ġstanza":7717,"Ġeffettuare":7718,"Ġortodos":7719,"ĠFeli":7720,"ĠSmith":7721,"erire":7722,"ĠBus":7723,"Ġformale":7724,"Ġbizantino":7725,"due":7726,"Ġreparti":7727,"Ġspie":7728,"resciallo":7729,"book":7730,"edendo":7731,"Ġambientali":7732,"fgh":7733,"Ġcondotti":7734,"ttrice":7735,"Ġidea":7736,"Ġsho":7737,"Ġgiudica":7738,"ĠÃ©":7739,"Ġregionali":7740,"Ġseparazione":7741,"fal":7742,"Ġghi":7743,"Ġcoalizione":7744,"Ġ1957":7745,"Ġdenti":7746,"occasione":7747,"Ġtopo":7748,"gher":7749,"ĠNobel":7750,"inglese":7751,"Ġmanifestazione":7752,"Ġsostenuto":7753,"Ġcomunica":7754,"mmeno":7755,"ĠfacoltÃł":7756,"Ġcostu":7757,"Ġrussi":7758,"Ġaffari":7759,"Ġassunse":7760,"iner":7761,"Ġband":7762,"zionata":7763,"Ġesponenti":7764,"Ġespressione":7765,"Ġ1917":7766,"essioni":7767,"Ġulteriore":7768,"Ġriceve":7769,"Ġcritico":7770,"Ġprivato":7771,"ĠTerri":7772,"fare":7773,"Ġari":7774,"Ġramo":7775,"quila":7776,"ĠVati":7777,"Î¼":7778,"Ġriscal":7779,"Ġceleb":7780,"Ġrefer":7781,"Ġmise":7782,"Ġguidato":7783,"ezioni":7784,"stare":7785,"Ġmanoscri":7786,"Ġcercando":7787,"Ġdecennio":7788,"Ġpaesa":7789,"Ġvariante":7790,"Ġneri":7791,"Ġintervento":7792,"Ġmetropolitana":7793,"rei":7794,"Ġschema":7795,"fran":7796,"formi":7797,"Ġsintomi":7798,"Ġdiparti":7799,"Ġporti":7800,"ĠLettera":7801,"Ġragazzi":7802,"Ġspecifici":7803,"bini":7804,"ĠRivoluzione":7805,"Ġpositivo":7806,"400":7807,"ĠToscana":7808,"ĠCivi":7809,"Ġobiettivo":7810,"à¸":7811,"ĠComitato":7812,"ĠGas":7813,"ĠTesta":7814,"ĠYo":7815,"aeroporto":7816,"Ġiner":7817,"Ġcommissione":7818,"Ġclub":7819,"ĠBell":7820,"Ġcompro":7821,"Mo":7822,"Ġsindaco":7823,"ĠAustria":7824,"mea":7825,"Ġcm":7826,"ĠGlo":7827,"ĠBAV":7828,"ĠNum":7829,"Ġaggre":7830,"ĠMala":7831,"Ġesperimenti":7832,"evano":7833,"Ġgiallo":7834,"ON":7835,"Ġ1959":7836,"pota":7837,"ĠuniversitÃł":7838,"Ġniente":7839,"Ġgiunse":7840,"Ġ1914":7841,"Ġutilizzo":7842,"ĠAtene":7843,"ĠCER":7844,"Ġpriva":7845,"ds":7846,"ttualmente":7847,"Ġ1953":7848,"Ġdialetto":7849,"Ġlaboratorio":7850,"Ġ48":7851,"Ġnecessariamente":7852,"mula":7853,"OS":7854,"ulso":7855,"Ġmangia":7856,"Ġrinven":7857,"Ġbran":7858,"ET":7859,"orn":7860,"circa":7861,"Ġsonda":7862,"Ġmoneta":7863,"abi":7864,"Ġorizzon":7865,"Ġparlato":7866,"asto":7867,"Ġallar":7868,"Ġcristianesimo":7869,"Ġpartecipare":7870,"Ġdeva":7871,"Ġusano":7872,"insegna":7873,"viene":7874,"Ġbul":7875,"genzia":7876,"istruzione":7877,"Ġautonoma":7878,"Ġrivesti":7879,"ĠRossa":7880,"ois":7881,"Ġmanifestazioni":7882,"Ġabbandon":7883,"ĠPorta":7884,"Ġcapitolo":7885,"Ġstabilito":7886,"ĠTrattato":7887,"tatore":7888,"Ġ1949":7889,"Ġrappresentare":7890,"Ġaboli":7891,"Ġrazza":7892,"BA":7893,"Ġchiusura":7894,"ĠMess":7895,"Ġtendenza":7896,"Ġaltra":7897,"ttorie":7898,"teo":7899,"Ġbianchi":7900,"Ġsovietici":7901,"ĠInternational":7902,"Ġassunto":7903,"Controllo":7904,"Ġinviato":7905,"Ġsoccor":7906,"Ġassociato":7907,"Ġorganizzazione":7908,"ĠTai":7909,"Ġridotta":7910,"Ġreda":7911,"US":7912,"impiego":7913,"ĠDomenico":7914,"modifica":7915,"cologia":7916,"Ġinsetti":7917,"Ġraffred":7918,"Ġvicin":7919,"Ġdimostrare":7920,"Ġmetal":7921,"sy":7922,"Ġcontrollare":7923,"Esercito":7924,"Ġtransizione":7925,"dea":7926,"fino":7927,"Ġminima":7928,"Ġborghe":7929,"espansione":7930,"Ġconsenso":7931,"//":7932,"Ġpremi":7933,"Ġrocce":7934,"Ġ44":7935,"voyage":7936,"Ġpaziente":7937,"Ġlatte":7938,"3333":7939,"ĠPoichÃ©":7940,"Ġricevere":7941,"Gu":7942,"Ġoriginariamente":7943,"Ġmatematico":7944,"Ġamore":7945,"Ġequazioni":7946,"Ġadottato":7947,"Ġmusulmani":7948,"pola":7949,"viste":7950,"ray":7951,"ĠBari":7952,"urt":7953,"Ġerrori":7954,"alleanza":7955,"ssico":7956,"Ġelettromagne":7957,"Ġvers":7958,"ĠCity":7959,"Ġzucch":7960,"ĠVeneto":7961,"Ġpetrolio":7962,"Ġutilizzano":7963,"Ġprecisione":7964,"messe":7965,"quisizione":7966,"Ġabbat":7967,"Ungheria":7968,"opp":7969,"Ġrimanere":7970,"Ġazienda":7971,"Ġconcor":7972,"mie":7973,"Ġimpiegati":7974,"ĠAristotele":7975,"Ġespansione":7976,"Ġdiviso":7977,"Ġdistinzione":7978,"Ġcattolici":7979,"ĠOtto":7980,"ganda":7981,"Ġrappresentata":7982,"Ġsegnali":7983,"appo":7984,"cum":7985,"Ġvan":7986,"Ġelettronica":7987,"Ġaristo":7988,"Ġsfera":7989,"Ġgiocatori":7990,"Ġconsiderate":7991,"Ġstemma":7992,"esplo":7993,"Ġmomenti":7994,"Ġpredica":7995,"Ġideale":7996,"Ġaccordi":7997,"Ġrispar":7998,"Ġ1954":7999,"Ġmarche":8000,"ĠAda":8001,"arch":8002,"ĠDC":8003,"AM":8004,"Ġslo":8005,"Ġprofondo":8006,"urrezione":8007,"ritto":8008,"erva":8009,"Ġdettagli":8010,"Ġliberazione":8011,"Ġdapp":8012,"Ġsla":8013,"ED":8014,"Ġchiuso":8015,"Ġmusicali":8016,"ĠCastello":8017,"estri":8018,"Ġricco":8019,"giano":8020,"Ġ1955":8021,"Ġottomano":8022,"ĠsviluppÃ²":8023,"hÄģ":8024,"ĠData":8025,"ÅĤ":8026,"Ġindo":8027,"Ġcitato":8028,"mita":8029,"ĠFron":8030,"Ġabbond":8031,"Ġsviluppata":8032,"della":8033,"Ġtela":8034,"Ġfibre":8035,"Ġsepp":8036,"%,":8037,"episodio":8038,"mbridge":8039,"Ġmera":8040,"Ġparzialmente":8041,"Ġdiventando":8042,"Ġsconosci":8043,"ĠMichel":8044,"Ġomo":8045,"AP":8046,"onazione":8047,"Ġdiminui":8048,"trin":8049,"por":8050,"Ġimpiegato":8051,"ted":8052,"ĠEcon":8053,"Ġelettorale":8054,"Ġregg":8055,"Ġisraeli":8056,"dafrica":8057,"gma":8058,"Ġbanche":8059,"ĠVis":8060,"Ġinsu":8061,"ĠAmerican":8062,"Ġcoppie":8063,"Ġsingola":8064,"Ġprofession":8065,"ones":8066,"Ġ<":8067,"ĠBlo":8068,"Ġvivo":8069,"ĠGener":8070,"Ġideali":8071,"Ġconcre":8072,"Ġnemmeno":8073,"Ġparete":8074,"ĠentitÃł":8075,"Ġarchitett":8076,"lessi":8077,"til":8078,"let":8079,"ety":8080,"ĠgravitÃł":8081,"Ora":8082,"Ġmm":8083,"Ġcana":8084,"Ġincer":8085,"bari":8086,"Ġaustriaco":8087,"Ġnera":8088,"Ġreclu":8089,"Ġdubbio":8090,"beri":8091,"Ġmonarchia":8092,"Ġsperanza":8093,"inamento":8094,"impresa":8095,"Ġassenza":8096,"Ġvenire":8097,"ĠMussolini":8098,"ĠOggi":8099,"minato":8100,"Ġpotenti":8101,"Ġastronomi":8102,"Ġrito":8103,"Ġsaggio":8104,"Ġspar":8105,"Ġresidenza":8106,"Ġritira":8107,"anesi":8108,"ĠUnione":8109,"Ġcostruiti":8110,"Ġgeografica":8111,"Ġvelivoli":8112,"ĠCaterina":8113,"Ġaiu":8114,"gle":8115,"ĠVincenzo":8116,"Ġpone":8117,"Ġsostanzialmente":8118,"Ġfranco":8119,"gnazione":8120,"nei":8121,"Ġesistenti":8122,"Ġalternativa":8123,"elen":8124,"Ġprospettiva":8125,"ĠStre":8126,"Ġolio":8127,"Ġatmos":8128,"Ġculture":8129,"Ġnecessarie":8130,"ĠForce":8131,"Ġriforni":8132,"VIII":8133,"Ġsopravviss":8134,"Ġnetta":8135,"bano":8136,"voca":8137,"Ġriforme":8138,"Ġproposto":8139,"Ġbassi":8140,"ĠInfine":8141,"Ġdecide":8142,"Ġpesci":8143,"Ġmul":8144,"Ġteorema":8145,"anora":8146,"ĠOx":8147,"ĠDalla":8148,"Ġaffian":8149,"giana":8150,"Ġguardia":8151,"ĠMicro":8152,"king":8153,"ulo":8154,"Ġassass":8155,"120":8156,"Ġsovietico":8157,"Ġcreata":8158,"ĠAustralia":8159,"Ġmostrano":8160,"Ġ1937":8161,"Ġpenet":8162,"Ġnormali":8163,"altare":8164,"Ġcompagnie":8165,"ĠUS":8166,"Ġdotati":8167,"Ġprofilo":8168,"ĠLord":8169,"gorio":8170,"Ġpreparazione":8171,"ĠClaudio":8172,"schi":8173,"Ġricchezza":8174,"Ġdichiarazione":8175,"Ġsh":8176,"Ġspinta":8177,"Ġrock":8178,"Ġvalutazione":8179,"Ġoriginario":8180,"Ġassicura":8181,"Ġdispositivo":8182,"Ġterreni":8183,"gliata":8184,"elemento":8185,"Ġdemocrazia":8186,"Ġgare":8187,"Ġgall":8188,"Ġportano":8189,"Ġmissioni":8190,"BC":8191,"geria":8192,"Ġrinuncia":8193,"Ġritra":8194,"ĠGil":8195,"Ġtiene":8196,"Ġpunte":8197,"Ġferiti":8198,"Ġattravers":8199,"ĠArmata":8200,"mol":8201,"Ġbrevi":8202,"Ġfrequenti":8203,"Ġfemmine":8204,"ĠsubÃ¬":8205,"work":8206,"endente":8207,"Ġ43":8208,"Ġfirma":8209,"Ġaiutare":8210,"ĠPiazza":8211,"Ġ39":8212,"Ġcompare":8213,"Ġguidata":8214,"Ġpermise":8215,"ĠBea":8216,"Ġpad":8217,"Ġlitur":8218,"associazione":8219,"ĠPonte":8220,"Ġformalmente":8221,"ficazioni":8222,"Ġmanifes":8223,"ĠBudd":8224,"Ġchiesto":8225,"Ġdenominato":8226,"inanti":8227,"ĠcercÃ²":8228,"ĠDen":8229,"Ġ55":8230,"ĠElisabetta":8231,"eranno":8232,"Ġfrase":8233,"Ġpeggio":8234,"ĠTy":8235,"Ġsva":8236,"Ġpagine":8237,"Ġmoltep":8238,"Ġdeputati":8239,"ĠEssi":8240,"Ġvelivolo":8241,"esecuzione":8242,"Ġterremoto":8243,"Ġognuno":8244,"Ġcontinuare":8245,"ith":8246,"ĠPanzer":8247,"ĠCatto":8248,"ĠFil":8249,"ĠBabil":8250,"Ġtrad":8251,"gnate":8252,"ganti":8253,"dei":8254,"mino":8255,"Inoltre":8256,"Ġtenuta":8257,"ĠGiochi":8258,"Ġsocialista":8259,"Ġcore":8260,"Ġcrimina":8261,"eu":8262,"Ġ495":8263,"zzar":8264,"Ġriconoscere":8265,"Assemblea":8266,"Ġinclude":8267,"opposizione":8268,"ĠAc":8269,"hip":8270,"ĠNA":8271,"ceae":8272,"hard":8273,"Ġdistingue":8274,"Ġapproccio":8275,"Ġricercatori":8276,"Ġdifferente":8277,"://":8278,"Ġvite":8279,"Ġfinalmente":8280,"Ġparametri":8281,"Ġdenominata":8282,"Ġretti":8283,"Ġspiegare":8284,"inna":8285,"Ġfatte":8286,"Ġovviamente":8287,"ĠOn":8288,"Ġmusici":8289,"ĠSquad":8290,"guardo":8291,"virus":8292,"Ġ1929":8293,"Ġrealizzati":8294,"bul":8295,"âĶ":8296,"Ġhe":8297,"Ġrimasero":8298,"Ġnovanta":8299,"Ġglu":8300,"ĠKarl":8301,"ĠTito":8302,"Ġproduttore":8303,"alia":8304,"ĠJos":8305,"Ġ1933":8306,"kes":8307,"ĠParco":8308,"Ġdipendenti":8309,"á¹£":8310,"Ġgiocatore":8311,"ĠNet":8312,"ĠAri":8313,"Ġtuo":8314,"losofia":8315,"viÄį":8316,"Ġvisibili":8317,"pet":8318,"trona":8319,"ĠSempre":8320,"Ġcomplessa":8321,"Ġtrattava":8322,"ĠPon":8323,"ĠCur":8324,"Ġregni":8325,"Ġdistinguere":8326,"Ġenzi":8327,"Ġsicuro":8328,"allora":8329,"Ġcontrad":8330,"verna":8331,"Ġgermani":8332,"Ġritorna":8333,"sch":8334,"Ġwiki":8335,"Ġrame":8336,"Ġcopie":8337,"remo":8338,"Ġquadri":8339,"Ġesser":8340,"Ġsostituzione":8341,"Ġsuppor":8342,"ĠPrus":8343,"Ġesigenze":8344,"tunno":8345,"rach":8346,"Ġperfe":8347,"Ġeseguire":8348,"Ġcontadini":8349,"iro":8350,"essato":8351,"Ab":8352,"No":8353,"Ġdestinato":8354,"Ġpezzo":8355,"ficando":8356,"Ġ46":8357,"Ġarabi":8358,"cl":8359,"ucci":8360,"zano":8361,"cker":8362,"Armata":8363,"Ġracconti":8364,"Ġoffre":8365,"Ġpiloti":8366,"Ġarresta":8367,"Ġregolari":8368,"Ġmembrana":8369,"bola":8370,"ĠMedaglia":8371,"Ġvicende":8372,"Ġveramente":8373,"ĠCambridge":8374,"Ġdolce":8375,"iono":8376,"Ġdotata":8377,"Ġrista":8378,"visioni":8379,"cago":8380,"ĠGiuli":8381,"ciati":8382,"Ġgiusto":8383,"Ġapprossima":8384,"gazz":8385,"Ġsovietica":8386,"entu":8387,"ĠavrÃł":8388,"ĠBasilica":8389,"Ġautonomia":8390,"ĠAtti":8391,"ĠMur":8392,"Ġcariche":8393,"ĠDanimarca":8394,"Ġcicli":8395,"ĠbensÃ¬":8396,"ĠWol":8397,"Ġfisiche":8398,"ĠBlu":8399,"Ġcircolare":8400,"Ġcopia":8401,"Ġtrion":8402,"Ġorgano":8403,"Ġ65":8404,"Ġappartiene":8405,"XI":8406,"Ġmoni":8407,"Vo":8408,"Ġcritici":8409,"Ġvigi":8410,"PS":8411,"omor":8412,"Ġob":8413,"endersi":8414,"ĠCapp":8415,"cipro":8416,"ĠAgos":8417,"Ġdro":8418,"Ġeva":8419,"Ġindire":8420,"Ġtropi":8421,"Ġavvicina":8422,"Ġproteggere":8423,"etnam":8424,"gru":8425,"Ġdisputa":8426,"hel":8427,"tarono":8428,"Ġportati":8429,"ĠPur":8430,"Ġriprodu":8431,"cessione":8432,"Ġvoluto":8433,"Ġnavigazione":8434,"Ġpul":8435,"So":8436,"Ġmorf":8437,"Ġmonete":8438,"siano":8439,"ĠEditore":8440,"odier":8441,"tonia":8442,"aldo":8443,"trico":8444,"Ġnerv":8445,"ĠPopolare":8446,"lana":8447,"presa":8448,"fisica":8449,"ĠMonaco":8450,"Ġporzione":8451,"Ġtelevisione":8452,"Ġgiornalista":8453,"Ġtelevisiva":8454,"Ġnazista":8455,"Ġmacro":8456,"ĠProvincia":8457,"Ġcircuito":8458,"glo":8459,"pria":8460,"zionati":8461,"Ġcomunista":8462,"Ġpareti":8463,"IM":8464,"Ġmagnetico":8465,"Ġconti":8466,"ĠEsso":8467,"Ġmoderne":8468,"Ġcredo":8469,"Ġ250":8470,"Ġchiede":8471,"Ġriportato":8472,"Ġfreddo":8473,"Ġprogettazione":8474,"ĠIsole":8475,"Ġfallimento":8476,"tebra":8477,"erei":8478,"zzazioni":8479,"elio":8480,"crate":8481,"specie":8482,"uts":8483,"danza":8484,"ĠPacifico":8485,"Ġcantante":8486,"Ġconsapevole":8487,"Ġcollina":8488,"Ġedizioni":8489,"Ġcompiti":8490,"ban":8491,"siana":8492,"Ġbina":8493,"ĠPierre":8494,"Ġfama":8495,"Ġavessero":8496,"Ġscarsa":8497,"Ġcompresi":8498,"Ġesterni":8499,"Ġarbi":8500,"Ã¨re":8501,"Ġ1922":8502,"np":8503,"core":8504,"Ġsfu":8505,"667":8506,"ĠAuto":8507,"Ġpassando":8508,"Ori":8509,"ficati":8510,"fonso":8511,"Ġvetro":8512,"esempio":8513,"Ġindietro":8514,"Ġ1952":8515,"Ġpreoccupa":8516,"mero":8517,"varsi":8518,"Ġpartite":8519,"andro":8520,"Alcuni":8521,"Ġcreando":8522,"avanza":8523,"AL":8524,"Ġrecipro":8525,"Ġmerci":8526,"Ġuscita":8527,"ĠSocialista":8528,"ĠAla":8529,"Ġstamp":8530,"Ġdobbiamo":8531,"Ġtestimonianze":8532,"Ġproduttori":8533,"Ġconflitti":8534,"elezione":8535,"cela":8536,"Ġ1000":8537,"Ġmaritti":8538,"Ġvettore":8539,"ĠRen":8540,"sima":8541,"ĠLes":8542,"mul":8543,"equipa":8544,"Ġsforzi":8545,"ĠMilitare":8546,"Ġdecre":8547,"Ġsessuali":8548,"ĠScozia":8549,"Ġradar":8550,"affer":8551,"uel":8552,"Ġviva":8553,"ĠSir":8554,"Ġseguita":8555,"Ġripi":8556,"Ġritenuto":8557,"ĠPlatone":8558,"truzioni":8559,"Ġ1935":8560,"ĠGregorio":8561,"Ġsegreto":8562,"ĠSassonia":8563,"Ġfamosi":8564,"sk":8565,"Ġripri":8566,"Ġcombinazione":8567,"ĠGeo":8568,"Ġcausato":8569,"Ġcavalli":8570,"ory":8571,"inda":8572,"Ġstrategia":8573,"ĠBiblioteca":8574,"Ġchimico":8575,"ggono":8576,"Ġprotagonisti":8577,"lantico":8578,"ĠidentitÃł":8579,"Ġprofessore":8580,"Ġcolonnello":8581,"ĠFur":8582,"Ġconcluse":8583,"Ġtomba":8584,"Ġpse":8585,"ĠDisney":8586,"fisi":8587,"Ġconoscenze":8588,"Ġnegativo":8589,"Ġradicale":8590,"Ġvicenda":8591,"ĠClassificazione":8592,"Ġorganizzato":8593,"ĠClub":8594,"biti":8595,"ĠAngeles":8596,"Roma":8597,"ĠEri":8598,"Ġ41":8599,"Ġcaro":8600,"mberto":8601,"riti":8602,"omma":8603,"Ġfinito":8604,"Ġgiornale":8605,"ĠPrussia":8606,"ĠVietnam":8607,"tativo":8608,"San":8609,"Ġmostrato":8610,"ht":8611,"Ġdedi":8612,"Ġespresso":8613,"ĠCD":8614,"Ġreligioni":8615,"Ġprogressivamente":8616,"Ġintero":8617,"ĠinviÃ²":8618,"Ġtendono":8619,"Ġchiaramente":8620,"Ġpianeti":8621,"ĠPhili":8622,"gegneria":8623,"Ġsfo":8624,"Ġcompositore":8625,"Ġsicili":8626,"ĠNas":8627,"Ã§ois":8628,"Ġsatellite":8629,"Ġcontengono":8630,"ĠCERL":8631,"ĠJac":8632,"Ġottenendo":8633,"stan":8634,"ĠSei":8635,"Ġvariazione":8636,"Î¯":8637,"versario":8638,"Îº":8639,"Ġosservare":8640,"Ġcorto":8641,"mondo":8642,"Ġdeterminata":8643,"ĠJaco":8644,"zionamento":8645,"Ġpolvere":8646,"Ġsconfitto":8647,"Ġdescrivere":8648,"Ġmattina":8649,"Ġcavalieri":8650,"Ġcolpito":8651,"importante":8652,"fabeto":8653,"Ġesistenza":8654,"Tuttavia":8655,"ĠSt":8656,"ĠCON":8657,"ĠScuola":8658,"Ġnucleari":8659,"Ġbus":8660,"Ġcnp":8661,"Ġdefin":8662,"Ġ1934":8663,"ĠEdward":8664,"ĠCorona":8665,"ĠTex":8666,"otti":8667,"ĠGior":8668,"Ġterritoriale":8669,"pite":8670,"Ġscoperte":8671,"Ġraramente":8672,"ĠTal":8673,"Ġciascun":8674,"Ġfri":8675,"Bi":8676,"ugoslavia":8677,"ĠNote":8678,"Ġsceneggia":8679,"ĠSacro":8680,"Ġsignificativo":8681,"Ġambientale":8682,"opinione":8683,"ĠAward":8684,"Ġgeometria":8685,"Es":8686,"Ġpagamento":8687,"Ġprecisa":8688,"Ġesistente":8689,"Ġedifica":8690,"ĠEdoardo":8691,"Ġcodifica":8692,"Ġincarica":8693,"ĠBarba":8694,"Ġdapprima":8695,"ĠMassimo":8696,"geva":8697,"Ġ1951":8698,"Ġtestimonianza":8699,"Ġsostenitori":8700,"lite":8701,"Ġadulti":8702,"ĠAv":8703,"Ġteologia":8704,"zzarono":8705,"artista":8706,"Ġviventi":8707,"Ġimprovvis":8708,"ĠStalin":8709,"à¥į":8710,"Ġosservazioni":8711,"Ġincorpo":8712,"Ġesperienze":8713,"ziati":8714,"ĠNatura":8715,"Ġportoghese":8716,"Ġconferma":8717,"ttone":8718,"Ġselezione":8719,"Ġtermo":8720,"bona":8721,"Ġæ":8722,"Ġesperti":8723,"Ġradice":8724,"Ġpsicologia":8725,"790":8726,"ĠSet":8727,"ĠVergine":8728,"uf":8729,"ĠLis":8730,"pirazione":8731,"ĠÂ":8732,"ust":8733,"Ġscegliere":8734,"Ġrinnova":8735,"Ġcanzoni":8736,"ĠMonda":8737,"Ġbraccio":8738,"Ġcircolazione":8739,"Irlanda":8740,"Ġtavola":8741,"Ġrequisi":8742,"Ġfeu":8743,"Ġmigra":8744,"Äģn":8745,"UN":8746,"rena":8747,"Ġaltrettan":8748,"Ġoce":8749,"Ġquotidiano":8750,"ĠordinÃ²":8751,"nico":8752,"Ġmedesi":8753,"miraglio":8754,"Ġindossa":8755,"aribal":8756,"ĠVan":8757,"ters":8758,"Ġretta":8759,"Ġdiventata":8760,"ĠParis":8761,"Ġsalva":8762,"appa":8763,"pare":8764,"dibile":8765,"cea":8766,"sson":8767,"Ġdefiniti":8768,"Ġbasse":8769,"ĠInstitu":8770,"Ġspagnoli":8771,"tea":8772,"Ġvittorie":8773,"Ġmaschio":8774,"Ġchiedere":8775,"ziare":8776,"essuali":8777,"ĠBlack":8778,"Ġclan":8779,"ĠEsistono":8780,"ĠMiG":8781,"Ġinterme":8782,"Ale":8783,"tempo":8784,"mel":8785,"Ġsanta":8786,"Ġcandidato":8787,"mir":8788,"thur":8789,"ĠGeorg":8790,"ak":8791,"llazione":8792,"ĠAss":8793,"Ġlavorazione":8794,"Ġuffici":8795,"Ġliberi":8796,"Ġdate":8797,"ĠRomania":8798,"gal":8799,"Ġcucina":8800,"Ġtabella":8801,"Asso":8802,"Ġseguendo":8803,"ĠGenerale":8804,"assenza":8805,"ĠChristi":8806,"Ġsocial":8807,"ardie":8808,"Ġcreati":8809,"Ġ1921":8810,"ĠBaviera":8811,"Ġclassici":8812,"Ġalgori":8813,"Ġminerali":8814,"Ġonline":8815,"pon":8816,"Ġquantistica":8817,"Ġtelesco":8818,"Ġroves":8819,"Ġkg":8820,"Ġinteressante":8821,"Ġsussi":8822,"mide":8823,"bot":8824,"ĠUnited":8825,"Ġartificiale":8826,"Ġgrano":8827,"Ġarco":8828,"ĠFino":8829,"ille":8830,"Ġmammiferi":8831,"Ġbotani":8832,"Ġassociazioni":8833,"Ġolandese":8834,"Ġprevista":8835,"ĠKh":8836,"cei":8837,"Ġimple":8838,"ĠSegre":8839,"Ġstudente":8840,"licesimo":8841,"Ġoriginali":8842,"Ġcomportamenti":8843,"IN":8844,"Ġautomobili":8845,"Ġcondannato":8846,"ĠLen":8847,"Ġvocali":8848,"Ġtour":8849,"Ġaffida":8850,"impianto":8851,"Ġspalle":8852,"wis":8853,"Ġprolun":8854,"Ġwikitesto":8855,"fred":8856,"Ġdopoguerra":8857,"ĠMary":8858,"Ġschiera":8859,"cera":8860,"Ġcaldo":8861,"Ġresponsabili":8862,"Ġ600":8863,"ĠtrasferÃ¬":8864,"Ġelico":8865,"ettivo":8866,"Ġcompetizione":8867,"Ġaltezza":8868,"ĠstabilitÃł":8869,"Ġconversione":8870,"Ġpriori":8871,"Ġaccia":8872,"Ġimper":8873,"ĠÂł":8874,"Ġossa":8875,"Alto":8876,"gs":8877,"inverno":8878,"Io":8879,"ĠMargh":8880,"cedonia":8881,"Oltre":8882,"pica":8883,"Ġcollezione":8884,"Ġevoluzione":8885,"Ġcasu":8886,"Ġagen":8887,"Ġvasto":8888,"Ġattre":8889,"ĠFrancisco":8890,"Ġ130":8891,"Ġatter":8892,"trÃł":8893,"incarico":8894,"dero":8895,"ĠGiord":8896,"Ġfisici":8897,"ĠSulla":8898,"br":8899,"ĠÊ¿":8900,"Ġgenti":8901,"Ġdecine":8902,"Ġrottura":8903,"partimento":8904,"asta":8905,"ĠYe":8906,"osso":8907,"Ġancor":8908,"Ġcontea":8909,"Ġprete":8910,"try":8911,"Ġimmagine":8912,"Ġministero":8913,"ccÃ²":8914,"biltÃł":8915,"Ġpittura":8916,"tabile":8917,"Ġ1924":8918,"ĠGuido":8919,"Ġfilosofi":8920,"Ġdesign":8921,"ĠBattaglia":8922,"ĠLondon":8923,"Ġpoveri":8924,"Ġpermanente":8925,"Ġconvento":8926,"Ġopposizione":8927,"Ġmolecola":8928,"ĠsovranitÃł":8929,"elles":8930,"Ġfila":8931,"Ġprezzi":8932,"Ġimpatto":8933,"trone":8934,"identitÃł":8935,"Ġ..":8936,"Ġeso":8937,"Ġcalo":8938,"avvento":8939,"Ġcoro":8940,"Ġrifugia":8941,"Ġadul":8942,"Ġuccidere":8943,"Ġspettacolo":8944,"Ġfrutti":8945,"tosi":8946,"cti":8947,"Ðº":8948,"Ġplas":8949,"Ġriass":8950,"Ġcalendario":8951,"Ġmontagne":8952,"Ġresidenti":8953,"Ġriempi":8954,"ĠBruno":8955,"Ġruota":8956,"Ġspin":8957,"Ġposte":8958,"Ġ47":8959,"inistro":8960,"endum":8961,"Ġintera":8962,"Ġincora":8963,"Ġtren":8964,"ĠOxford":8965,"dinamica":8966,"Ġrivendica":8967,"ĠUniversitÃł":8968,"put":8969,"Ġinterpretazione":8970,"Men":8971,"ĠChicago":8972,"ĠseguÃ¬":8973,"2000":8974,"Ġfascista":8975,"ĠBat":8976,"pari":8977,"Ġdisce":8978,"Ġcomprendeva":8979,"riere":8980,"Ġbilancio":8981,"Ġ64":8982,"Ġsorgente":8983,"At":8984,"Ġseria":8985,"Ġpostu":8986,"Ġlarghe":8987,"esopota":8988,"Ġconferenza":8989,"ormi":8990,"Ġidrogeno":8991,"Ġprofondamente":8992,"Ġcomplica":8993,"Ġrall":8994,"Ġperson":8995,"Ġsoprann":8996,"Ġforeste":8997,"acquis":8998,"Ġdisastro":8999,"ĠMondo":9000,"Ġindividuo":9001,"Ġsignore":9002,"Ġcriteri":9003,"Ġgiuris":9004,"ĠPompe":9005,"Ġatmosferi":9006,"Ġdistretto":9007,"Ġbir":9008,"600":9009,"Ġpagare":9010,"Ġscelte":9011,"minare":9012,"Ġstavano":9013,"Ġ1927":9014,"Ġcarte":9015,"Ġmilione":9016,"Ġsembrano":9017,"Ġdiscu":9018,"Ġcoi":9019,"ĠAlessandria":9020,"ĠPrincipe":9021,"Ġdeclino":9022,"âĶĢ":9023,"incontro":9024,"Ġterapia":9025,"Ġconser":9026,"Ġcorrettamente":9027,"cchÃ©":9028,"ciate":9029,"Ġterzi":9030,"Ġvecchi":9031,"Ġsezioni":9032,"ĠrifiutÃ²":9033,"Ġpreghiera":9034,"yd":9035,"Ġparlamentare":9036,"gale":9037,"Ġappa":9038,"Ġapplicazione":9039,"ĠCompany":9040,"ola":9041,"ccardo":9042,"Ġ1923":9043,"Ġfarsi":9044,"Ġpersiano":9045,"ĠPet":9046,"Ġistituito":9047,"Pre":9048,"Ġversi":9049,"Ġaltrimenti":9050,"Ġerrore":9051,"Ġelevate":9052,"ĠCroazia":9053,"vanza":9054,"á¿":9055,"ĠPhy":9056,"vocato":9057,"ĠVenne":9058,"zioso":9059,"Ġcarbone":9060,"guaglianza":9061,"Ġcopertura":9062,"Ġperdere":9063,"Ġavvicin":9064,"Occidente":9065,"desimo":9066,"Ġ49":9067,"tation":9068,"Ġki":9069,"ĠFriedrich":9070,"Ġessersi":9071,"ĠFiglio":9072,"Ġnecessi":9073,"tanea":9074,"Ġbudd":9075,"Ġrimos":9076,"Uno":9077,"ĠFia":9078,"Ġuova":9079,"Ġparere":9080,"Ġcosiddetti":9081,"Ġassociata":9082,"Ġripe":9083,"Ġfluido":9084,"ĠMondadori":9085,"els":9086,"Ġple":9087,"Ġmori":9088,"mond":9089,"ĠpartecipÃ²":9090,"Ġmasse":9091,"ĠPier":9092,"ĠMonti":9093,"Aus":9094,"ĠLombardia":9095,"ĠMuseum":9096,"Ġossigeno":9097,"ĠBabilonia":9098,"gus":9099,"trono":9100,"Ġmagni":9101,"elica":9102,"ĠPiemonte":9103,"Ġsomm":9104,"Ġverticale":9105,"Ġformati":9106,"ĠRoss":9107,"Ġlaterali":9108,"ĠGalli":9109,"Ġstagioni":9110,"Ġestensione":9111,"ĠAssi":9112,"Ġcertamente":9113,"ĠRam":9114,"FA":9115,"Ġeconomia":9116,"Ġallun":9117,"CE":9118,"Ġcoer":9119,"ĠRegione":9120,"ĠRadio":9121,"sivi":9122,"Ġabbandonare":9123,"Ġdomenica":9124,"ccati":9125,"Ġvarianti":9126,"tersi":9127,"Ġtron":9128,"ĠFederazione":9129,"icolo":9130,"ĠAnni":9131,"Ġcroci":9132,"ines":9133,"IP":9134,"fil":9135,"Ġaccettare":9136,"Ġattribu":9137,"rava":9138,"Ġvantaggi":9139,"Ġarmata":9140,"orte":9141,"nica":9142,"chitÃł":9143,"ĠPark":9144,"Ġsvolgere":9145,"ĠMedicina":9146,"Ġporre":9147,"Gra":9148,"Ġesprime":9149,"stito":9150,"Ġbib":9151,"Ġmonumento":9152,"insegnamento":9153,"uch":9154,"ĠNorth":9155,"Ġispirato":9156,"animale":9157,"Ġequivalente":9158,"Ġprogettato":9159,"ĠAnno":9160,"Ġrisultano":9161,"ĠIsa":9162,"guÃ¬":9163,"riatico":9164,"lizia":9165,"lÃ©":9166,"old":9167,"piano":9168,"teni":9169,"para":9170,"Ġprincipessa":9171,"linazione":9172,"sma":9173,"Ġmeccanismi":9174,"inaudi":9175,"tona":9176,"inare":9177,"Ġrichiesto":9178,"eve":9179,"Ġpis":9180,"orbi":9181,"Ġpolari":9182,"gnos":9183,"ĠtentÃ²":9184,"Imperatore":9185,"Ġpermettendo":9186,"europe":9187,"Ġ1928":9188,"ĠYu":9189,"ĠVaticano":9190,"Ġvoglia":9191,"ËĪ":9192,"Ġdomes":9193,"ĠVangelo":9194,"Ġ52":9195,"datura":9196,"andone":9197,"Ġconosce":9198,"Î¿ÏĤ":9199,"Ġvelocemente":9200,"aci":9201,"Ġindicano":9202,"ĠPadre":9203,"Ġricchi":9204,"Ġsilen":9205,"Ġriguardanti":9206,"ensis":9207,"Ġprogrammazione":9208,"osamente":9209,"ĠÃĹ":9210,"gob":9211,"Opera":9212,"Ġ1932":9213,"cul":9214,"unciato":9215,"fato":9216,"Ġsomi":9217,"Ġamministrazione":9218,"Ġromanzi":9219,"Ġinserito":9220,"ĠFilosofia":9221,"vori":9222,"golari":9223,"Ġcug":9224,"Ġformazioni":9225,"inas":9226,"contin":9227,"Ġvenendo":9228,"Ġsuperfici":9229,"Ġscopi":9230,"ĠfondÃ²":9231,"ingua":9232,"Ġcomprensione":9233,"Ġfirmato":9234,"Ġpesce":9235,"pta":9236,"tavano":9237,"onore":9238,"Ġterrori":9239,"vismo":9240,"quali":9241,"CosÃ¬":9242,"Ġsciol":9243,"Ġuccisi":9244,"ecc":9245,"Ġsforzo":9246,"ĠCampo":9247,"Ġesteso":9248,"trutture":9249,"ĠTempio":9250,"Ã´":9251,"raneamente":9252,"ĠRon":9253,"Ġdiffusi":9254,"Ġcresci":9255,"letto":9256,"ĠÂłĠÂł":9257,"educazione":9258,"vet":9259,"ĠPisa":9260,"Ġstoricamente":9261,"iodo":9262,"Ġvedi":9263,"Ġrimangono":9264,"Ġampie":9265,"Ġsoddisfa":9266,"Ġvulcani":9267,"Ġinta":9268,"ĠMassi":9269,"inando":9270,"Ġamma":9271,"ĠMassa":9272,"pressi":9273,"ĠVittoria":9274,"ĠÂ·":9275,"Ġoccupata":9276,"ÃĹ":9277,"Ġ1848":9278,"Ġattori":9279,"Ġpiattaforma":9280,"Ġpista":9281,"Ġdissi":9282,"Ġcontrapp":9283,"Ġvideogio":9284,"Ġconsiderando":9285,"ĠCosta":9286,"Ġmaterie":9287,"ĠRed":9288,"Questi":9289,"ĠpotrÃł":9290,"ĠApol":9291,"Ġdivenuto":9292,"Ġultra":9293,"Ġattesa":9294,"ĠGuardia":9295,"Ġdea":9296,"dad":9297,"Ġtestimonia":9298,"Ġargomenti":9299,"Ġit":9300,"Ġessenziale":9301,"Ġpellicola":9302,"loghi":9303,"ĠOrig":9304,"Ġpellegr":9305,"ĠSociety":9306,"dows":9307,"ciamo":9308,"Ġ1926":9309,"ĠSeb":9310,"ĠArti":9311,"rÃ©":9312,"side":9313,"row":9314,"Ġmunicip":9315,"ĠBorbone":9316,"Ġattribuito":9317,"aggiun":9318,"Ġcogni":9319,"Ġtorri":9320,"Ġritiro":9321,"Ġincidente":9322,"ĠPolitica":9323,"Ġmuro":9324,"Ġportale":9325,"anistan":9326,"Ġdominante":9327,"ppiamo":9328,"gian":9329,"Ġleggera":9330,"Nonostante":9331,"Ġoperare":9332,"ttoni":9333,"Ġaeree":9334,"ESCO":9335,"Ġreddito":9336,"Ġoriginaria":9337,"quie":9338,"Ver":9339,"ĠJugoslavia":9340,"Ġrifiuti":9341,"Ġfamiliari":9342,"Ġproposte":9343,"Ġtorneo":9344,"Ġ1912":9345,"Ġsolida":9346,"Ġdicendo":9347,"Ġprivate":9348,"Ġconnessione":9349,"Ġcorro":9350,"Ġconson":9351,"Ġragazza":9352,"Ġ1925":9353,"pita":9354,"Ġscritte":9355,"entrata":9356,"Ġpolacco":9357,"ĠLon":9358,"Ġalimentari":9359,"ĠSho":9360,"Ti":9361,"Ġaggiunto":9362,"Ġpira":9363,"Ġmedesimo":9364,"Ġcarcere":9365,"Ġtenne":9366,"Ġarmato":9367,"Ġpropul":9368,"Ġartistico":9369,"ffo":9370,"Ġinti":9371,"ĠSel":9372,"eratori":9373,"Ġdiminu":9374,"Ġuscire":9375,"Ġmatura":9376,"Ġgigante":9377,"ings":9378,"Ġ1931":9379,"ĠanzichÃ©":9380,"Ġvegetali":9381,"Ġscientifiche":9382,"Ġirach":9383,"ĠLibro":9384,"pos":9385,"Ġdifendere":9386,"ĠnobiltÃł":9387,"Ġpeculi":9388,"ossido":9389,"Wi":9390,"ars":9391,"Ġperaltro":9392,"pico":9393,"ĠAlfonso":9394,"Ġforesta":9395,"Ġfunzionari":9396,"Ġsacro":9397,"Ġfres":9398,"Ġeccessi":9399,"dinanza":9400,"ĠMaggiore":9401,"Ġautomatica":9402,"Ġperiferi":9403,"Ġallontana":9404,"Ġgestire":9405,"ĠPuglia":9406,"Ġconduce":9407,"Ġsicuramente":9408,"ologiche":9409,"ĠNS":9410,"Ġreferendum":9411,"Ġmitra":9412,"Ġpover":9413,"Ġdiscendenti":9414,"ĠSia":9415,"Ġtorn":9416,"ĠDemocratico":9417,"Î·":9418,"Ġdiminuzione":9419,"Ġtipici":9420,"ule":9421,"vini":9422,"Ġcane":9423,"Ġcatene":9424,"Ġnottu":9425,"ĠVita":9426,"Ġcrescere":9427,"Ġnuclei":9428,"Ġanato":9429,"Ġmille":9430,"Ġdestro":9431,"Ġplay":9432,"ĠCinque":9433,"Ġimpedire":9434,"ĠFamiglia":9435,"Ġseparati":9436,"ziana":9437,"vegia":9438,"trica":9439,"Ġdinamica":9440,"Ġeserciti":9441,"Ġvillaggi":9442,"ĠCONOR":9443,"ggiamenti":9444,"dosso":9445,"fan":9446,"crazia":9447,"Ġaggiunta":9448,"Ġcomunisti":9449,"Abbiamo":9450,"utente":9451,"Ġfredda":9452,"Ïħ":9453,"conti":9454,"ffÃ¨":9455,"Ġrotta":9456,"Ġwith":9457,"Ġpromozione":9458,"Ġartistica":9459,"Ġritrova":9460,"Ġmonaci":9461,"Ġmeteoro":9462,"muo":9463,"Ġscoppio":9464,"ĠaffermÃ²":9465,"Ġbrani":9466,"Ġpanora":9467,"ĠSpirito":9468,"eserci":9469,"Ġrestri":9470,"individuo":9471,"Ġarro":9472,"Ġorganizzata":9473,"fghanistan":9474,"ĠIrlanda":9475,"pt":9476,"tola":9477,"Ġesce":9478,"Ġvinse":9479,"emi":9480,"agg":9481,"Ġscomparsa":9482,"Ġmillennio":9483,"Ġconfigurazione":9484,"ĠRock":9485,"ĠDuca":9486,"Ġbrev":9487,"Ġbril":9488,"Ġconcerto":9489,"Ġaccessi":9490,"Ġsostengono":9491,"Ġvolto":9492,"Ġequilibrio":9493,"Ġdeserto":9494,"ĠCentrale":9495,"Ġriconosciuta":9496,"ors":9497,"Ġ1915":9498,"Ġgiudice":9499,"alismo":9500,"Ġcima":9501,"tretta":9502,"sistenti":9503,"Ġpresidenza":9504,"Ġosci":9505,"Ġchiara":9506,"Ġbancono":9507,"ĠReale":9508,"ĠMovimento":9509,"Ġemana":9510,"denze":9511,"Ġcrono":9512,"Ġquinto":9513,"Ġdispu":9514,"Ġesemplare":9515,"Ġframmenti":9516,"bino":9517,"Ġroccia":9518,"ju":9519,"ĠDoug":9520,"Ġcompiere":9521,"Ġvincere":9522,"rado":9523,"stem":9524,"Ġpubblicati":9525,"ĠReggio":9526,"ĠSti":9527,"Ġabbandonato":9528,"nis":9529,"gregazione":9530,"erimento":9531,"Ġpropose":9532,"ciclopedia":9533,"Ġurbano":9534,"Ġscorso":9535,"ĠMartino":9536,"Ġsping":9537,"Ġraccom":9538,"ATO":9539,"Ġfavorevole":9540,"Ġspostamento":9541,"curi":9542,"Ġconsidere":9543,"Ġ1900":9544,"Ġinfras":9545,"Ġdestino":9546,"Ġimmi":9547,"ĠPonti":9548,"Ġtaglio":9549,"Ġtradu":9550,"Ġverti":9551,"Ġdimissioni":9552,"ĠTestamento":9553,"grammi":9554,"gherese":9555,"ĠEinaudi":9556,"Ġvenga":9557,"rendimento":9558,"Ġaero":9559,"Ġ51":9560,"Ġbattaglie":9561,"ĠGreen":9562,"ĠMira":9563,"Ġdigitali":9564,"ĠRaffa":9565,"ĠShe":9566,"ĠDipartimento":9567,"ĠParma":9568,"Ġcontenere":9569,"Ġrisalente":9570,"Ġimperiali":9571,"Ġcominciarono":9572,"ĠMadri":9573,"ĠLudo":9574,"Ġmobile":9575,"Ġdestinati":9576,"cta":9577,"ĠHei":9578,"ĠGiÃł":9579,"Ġricordo":9580,"bla":9581,"Ġtradizionalmente":9582,"Ġparziale":9583,"Ġvissuto":9584,"orus":9585,"ellini":9586,"ĠBang":9587,"Ġcomprese":9588,"Ġfacevano":9589,"Ġmondiali":9590,"ĠLigu":9591,"Ġschermo":9592,"nata":9593,"Ġcirconda":9594,"Col":9595,"utore":9596,"hara":9597,"Ġliberali":9598,"Ġinsediamenti":9599,"gone":9600,"Poi":9601,"zar":9602,"Ġinterven":9603,"Ġruoli":9604,"Ġvoli":9605,"Ġconsuma":9606,"Ġfedel":9607,"ĠCasti":9608,"Ġaffermato":9609,"ĠTrib":9610,"ĠFort":9611,"Ġpose":9612,"Ġendo":9613,"letta":9614,"Ġcerte":9615,"Ġatle":9616,"Ġbuddh":9617,"Ġmartire":9618,"Ġtetra":9619,"Ġpianura":9620,"hou":9621,"ĠNewton":9622,"ĠCristianesimo":9623,"faccia":9624,"Ġstazioni":9625,"ĠMate":9626,"Ġiniziare":9627,"Ġapo":9628,"Ġavete":9629,"Ġindividuale":9630,"Ġattivi":9631,"Ġcessa":9632,"ĠAllo":9633,"Ġbritanniche":9634,"Nelle":9635,"obbli":9636,"insta":9637,"Ġguar":9638,"Ġmisteri":9639,"ĠZel":9640,"Ġspirituali":9641,"ĠVerona":9642,"Ġconia":9643,"ttare":9644,"ĠbenchÃ©":9645,"Ġlaurea":9646,"ÏĮ":9647,"cula":9648,"nes":9649,"estensione":9650,"Ġesor":9651,"Ġdover":9652,"Ġconfermato":9653,"ning":9654,"ĠReno":9655,"Ġpresbi":9656,"Ġcanna":9657,"Ġtecnici":9658,"ĨĴ":9659,"albero":9660,"Ġveicolo":9661,"Ġrazionali":9662,"inascimento":9663,"Ġvicine":9664,"Ġneve":9665,"ĠHan":9666,"Ġconsole":9667,"ĠGall":9668,"ĠMedici":9669,"Ġassolutamente":9670,"ĠSom":9671,"gnosi":9672,"ĠScienze":9673,"ĠstabilÃ¬":9674,"ĠEin":9675,"Ġpotenziali":9676,"inizia":9677,"mismo":9678,"pisco":9679,"Ġcimi":9680,"geo":9681,"ĠNorman":9682,"urata":9683,"Ġoperatori":9684,"Ġiniziali":9685,"Ġdivisi":9686,"Ġriportate":9687,"rle":9688,"vari":9689,"Ġpatolo":9690,"Ġdimostrazione":9691,"Ġprotetto":9692,"Ġconservato":9693,"Ïī":9694,"Ġdigni":9695,"Ġsottra":9696,"Ġfemmina":9697,"drome":9698,"ĠschiavitÃ¹":9699,"zzurro":9700,"Ġangolo":9701,"zoto":9702,"VD":9703,"Ġconsecu":9704,"ĠTeresa":9705,"ĠMargherita":9706,"Ġrifiuto":9707,"gibile":9708,"Ġindiano":9709,"ĠJour":9710,"Ġtranne":9711,"ÃŃa":9712,"Ġrecentemente":9713,"Ġalter":9714,"ggendo":9715,"Ġnascon":9716,"Ġagire":9717,"Ġbellezza":9718,"ĠGeorgia":9719,"ĠLeonardo":9720,"Ġingresso":9721,"Ġriproduzione":9722,"appoggio":9723,"etre":9724,"ciatori":9725,"rd":9726,"scono":9727,"appar":9728,"Ġstatue":9729,"ĠPalestina":9730,"fine":9731,"Ġrango":9732,"Me":9733,"Â³":9734,"Ġbesti":9735,"Ġchimiche":9736,"Ġoccupato":9737,"arg":9738,"Hz":9739,"rente":9740,"mai":9741,"kary":9742,"Ġbin":9743,"ĠBill":9744,"Ġdiretti":9745,"Oriente":9746,"Ġcombustibile":9747,"Ġcorti":9748,"PerchÃ©":9749,"Ġcontatti":9750,"Ġcombattimenti":9751,"Ġeduca":9752,"quil":9753,"ĠEss":9754,"zzese":9755,"ÙĦ":9756,"Ġsperimentale":9757,"Ġmolta":9758,"Ġsostituire":9759,"ĠHistory":9760,"Ġpatto":9761,"ĠAcc":9762,"architetto":9763,"AI":9764,"apparato":9765,"Ãª":9766,"Ġprovviso":9767,"ĠEntra":9768,"Ġapprovato":9769,"Ġeffettuato":9770,"Ġteatrale":9771,"corre":9772,"Ġeletti":9773,"Ġcerebra":9774,"Ġchiusa":9775,"nu":9776,"ĠTrieste":9777,"Ġparrocchia":9778,"redi":9779,"rah":9780,"ttiche":9781,"wit":9782,"Ġpartendo":9783,"Ġgravita":9784,"Ġintellettuali":9785,"Ġmarchio":9786,"Ġindividuare":9787,"dando":9788,"Ġprocedura":9789,"tch":9790,"interazione":9791,"Ġcostituire":9792,"Ġprovinciale":9793,"Ġoccasioni":9794,"Ġterrestri":9795,"oceano":9796,"ĠBas":9797,"Ġtrasformazioni":9798,"Ġ#":9799,"Ġaerop":9800,"Ġcontinentale":9801,"Ġrappresentante":9802,"Ġghiaccia":9803,"Ġmiscela":9804,"130":9805,"Ġgradualmente":9806,"ĠMark":9807,"Ġdieta":9808,"ĠSiste":9809,"Ġdistinti":9810,"Ġbiblio":9811,"Ġdin":9812,"Ġcolli":9813,"Ġfornito":9814,"ĠMadrid":9815,"tmi":9816,"Jo":9817,"ĠCollege":9818,"ĠFerro":9819,"Ġlicenza":9820,"Ġsottile":9821,"Ġmorire":9822,"Ġrimasta":9823,"Ġmiti":9824,"Ġprodotte":9825,"Ġvisuali":9826,"strada":9827,"Ġprofessionale":9828,"EC":9829,"onimi":9830,"nea":9831,"Ġprimaria":9832,"Ġletteralmente":9833,"ĠSpar":9834,"Ġprepara":9835,"ĠpovertÃł":9836,"Ġmonarchi":9837,"Ġromane":9838,"Ġrisalgono":9839,"ĠAgostino":9840,"ĠFred":9841,"Ġdovrebbero":9842,"Ġspessore":9843,"Ġalge":9844,"Ð»":9845,"ĠPin":9846,"Ġindipendenza":9847,"Ġeliminare":9848,"heim":9849,"esposizione":9850,"ĠSede":9851,"ĠValen":9852,"ken":9853,"ĠFlo":9854,"rino":9855,"venna":9856,"Ġcoordinate":9857,"Ġ1911":9858,"ĠSergio":9859,"ĠBanca":9860,"karyota":9861,"Ġattore":9862,"Ġconsentire":9863,"pposi":9864,"Ã£":9865,"ĠVes":9866,"Ġdistanze":9867,"Ġcontrover":9868,"Antonio":9869,"rui":9870,"Ġcomanda":9871,"ĠDominio":9872,"ĠRes":9873,"Ġcancella":9874,"orbita":9875,"Ġottenuta":9876,"Ġsvaria":9877,"Ġsant":9878,"Ġavanzata":9879,"ĠcreÃ²":9880,"Ġbit":9881,"Ġscambia":9882,"Ġdispone":9883,"iano":9884,"pha":9885,"ĠEse":9886,"ttero":9887,"doni":9888,"Ġproducono":9889,"torica":9890,"Ġscrittori":9891,"classe":9892,"Ġprossimo":9893,"Ġespan":9894,"Ġtaglia":9895,"ĠParte":9896,"bach":9897,"zionare":9898,"Ġpresero":9899,"Ġrive":9900,"Ġlinguistica":9901,"Ġoccorre":9902,"ĠLucio":9903,"Ġmasch":9904,"Ġcancro":9905,"glioni":9906,"giorno":9907,"Ġguari":9908,"Ġfrequente":9909,"Ġprotestante":9910,"Ġrivolte":9911,"Ġtavole":9912,"Ġprototipo":9913,"sei":9914,"guardia":9915,"onate":9916,"lines":9917,"Ġproprietari":9918,"ĠClemente":9919,"Ġopposto":9920,"Ġindipendentemente":9921,"liche":9922,"Ġles":9923,"Ġritirata":9924,"Ġdiventano":9925,"Ġstretta":9926,"ĠabilitÃł":9927,"garia":9928,"Ġintrodotta":9929,"ĠLater":9930,"Ġraccolti":9931,"organo":9932,"Ġnaturalmente":9933,"Ġapplicata":9934,"ĠCinema":9935,"Ġrisco":9936,"Ġcardia":9937,"Succ":9938,"ĠSky":9939,"ĠEro":9940,"Ġdiscre":9941,"Ġmiglioramento":9942,"Ġguidati":9943,"Ġaraba":9944,"ckey":9945,"ĠHy":9946,"ĠJer":9947,"ĠTipo":9948,"Ġrimasti":9949,"Ġcito":9950,"Ġpropone":9951,"Ġserbato":9952,"Ġsvizz":9953,"ĠCenter":9954,"ĠcomplessitÃł":9955,"ĠEuropea":9956,"ĠGon":9957,"Bo":9958,"ĠMani":9959,"Ġletteraria":9960,"Ġsorte":9961,"Ġarmoni":9962,"Ġvolontari":9963,"Ġarcivescovo":9964,"Ġrealizzate":9965,"Ġdescritta":9966,"Ġriuscito":9967,"Ġpropaganda":9968,"fesa":9969,"ĠLong":9970,"ĠAT":9971,"Ġelevati":9972,"Ġsacerdoti":9973,"Ġmesco":9974,"Ġmontu":9975,"Ġdipinto":9976,"gonale":9977,"Ġimpiego":9978,"Ġcapaci":9979,"Ġappartengono":9980,"Ġsatelliti":9981,"Ġregistrato":9982,"Ġtante":9983,"ĠdimostrÃ²":9984,"ĠBorgo":9985,"ĠcontinuitÃł":9986,"Ġconcesso":9987,"Ġteam":9988,"Ġrecupero":9989,"arla":9990,"Ġpiacere":9991,"Ġfinire":9992,"bera":9993,"Ġproprietario":9994,"Ġragazzo":9995,"ĠTerritorio":9996,"Ġ53":9997,"Ġmarx":9998,"Ġchimici":9999,"cari":10000,"ĠdisponibilitÃł":10001,"ĠTen":10002,"Ġcivica":10003,"Ġriserve":10004,"Ġquartieri":10005,"ĠRosa":10006,"Ġordinato":10007,"Ġassociati":10008,"Ġamministrativa":10009,"Ġprivo":10010,"Ġacquista":10011,"ellino":10012,"Ġmedica":10013,"ĠChimica":10014,"ĠLeopol":10015,"Ġdovute":10016,"Ġmemori":10017,"ĠNorvegia":10018,"Ġpensato":10019,"ĠOscar":10020,"bn":10021,"antichitÃł":10022,"Ġprocura":10023,"ĠQuattro":10024,"ĠCat":10025,"Ġpaio":10026,"zzante":10027,"Ġaer":10028,"zzatore":10029,"Ġruote":10030,"Ġdialetti":10031,"Ġsusci":10032,"Ġtemplate":10033,"ĠTour":10034,"Ġsis":10035,"podi":10036,"ssio":10037,"Ġsuoni":10038,"tish":10039,"Ġchiunque":10040,"gnor":10041,"ĠNova":10042,"Ġrilevante":10043,"pper":10044,"dolf":10045,"cidiocesi":10046,"wski":10047,"Ġpuri":10048,"Ġsolido":10049,"Ġindicata":10050,"Ġsuffra":10051,"cetta":10052,"Ġformando":10053,"Ġdanza":10054,"Ġsinistro":10055,"natura":10056,"Ġconosciuti":10057,"ĠAre":10058,"Ġmedaglia":10059,"Ġcommerci":10060,"Ġaspetta":10061,"Ġmolecolare":10062,"aggiunta":10063,"lon":10064,"grati":10065,"ration":10066,"ĠCompagnia":10067,"ĠCari":10068,"Ġprossi":10069,"Ġ2023":10070,"omicidio":10071,"Ġincluso":10072,"Ġdivino":10073,"lito":10074,"Ġtutt":10075,"Ġcompiuto":10076,"lao":10077,"Ġesteri":10078,"Ġinclusi":10079,"Ġcomprendono":10080,"sin":10081,"anchi":10082,"Ġsocio":10083,"ĠLegge":10084,"assemblea":10085,"ĠSpace":10086,"gire":10087,"Alle":10088,"Ġadesso":10089,"Ġimpianto":10090,"Ġaggressi":10091,"dus":10092,"Ġapre":10093,"ccata":10094,"Ġmicrosco":10095,"Ġsoccorso":10096,"Ġpropriamente":10097,"Ġcollabo":10098,"ĠZi":10099,"Ġricorso":10100,"esercizio":10101,"Ġlentamente":10102,"Ġcittadinanza":10103,"IR":10104,"ĠColu":10105,"Ġ1910":10106,"Ġimmer":10107,"equipaggio":10108,"ĠWindows":10109,"ĠBran":10110,"famiglia":10111,"ĠEmilia":10112,"Ġiniziata":10113,"Ġdomande":10114,"Ġdimentica":10115,"Ġgiuridica":10116,"Ġtotali":10117,"prima":10118,"Ġaggiunge":10119,"carb":10120,"ĠSun":10121,"Ġaustrali":10122,"gressi":10123,"Ġperfettamente":10124,"Ġgiardino":10125,"Ġscorre":10126,"Ġseno":10127,"ĠAngelo":10128,"ĠUmberto":10129,"Ġdifficili":10130,"Ġ110":10131,"Ġsantuario":10132,"Ġriteneva":10133,"Ġraccogliere":10134,"fonda":10135,"mista":10136,"siani":10137,"ĠNavy":10138,"ĠRiccardo":10139,"ĠprossimitÃł":10140,"stin":10141,"Ġcostring":10142,"Ġmagistra":10143,"Ġclero":10144,"ggiate":10145,"sari":10146,"ĠdovrÃł":10147,"ggero":10148,"Ġ56":10149,"Ġindagini":10150,"ĠAirlines":10151,"med":10152,"ficate":10153,"siemi":10154,"ĠCarl":10155,"Ġaffidata":10156,"rolamo":10157,"ĠSupre":10158,"ĠAttualmente":10159,"ĠBook":10160,"italiano":10161,"Ġraggruppa":10162,"ampia":10163,"organismo":10164,"Ġcinematografica":10165,"Ġscaten":10166,"ĠGiulia":10167,"Ġpercezione":10168,"Ġtop":10169,"gun":10170,"miti":10171,"tandosi":10172,"Ġscambi":10173,"Ġdestinata":10174,"stre":10175,"Ġserver":10176,"Ġnegativa":10177,"Ġturismo":10178,"entata":10179,"Ġtroviamo":10180,"Ġfrequentemente":10181,"Ġpartecipato":10182,"Ġcostruzioni":10183,"Ġvettori":10184,"ĠEpi":10185,"Ġuguali":10186,"Ġdida":10187,"Ġcontinuarono":10188,"Ġev":10189,"Ġ1916":10190,"ĠMacedonia":10191,"Ġprecisamente":10192,"emer":10193,"Ġmercati":10194,"Ġgiuridico":10195,"Ġdisturbi":10196,"Ġindice":10197,"aribaldi":10198,"Ġdepressione":10199,"ĠRossi":10200,"edÃ¬":10201,"blo":10202,"ttle":10203,"Ġincontri":10204,"Ġidentificare":10205,"ĠBritish":10206,"ĠWalter":10207,"Ġacidi":10208,"Ġtubo":10209,"Ġbiologia":10210,"Ġcannone":10211,"El":10212,"prono":10213,"verÃł":10214,"entare":10215,"Ġpresentare":10216,"ite":10217,"Ġnul":10218,"democra":10219,"Ġdiscri":10220,"Ġimpero":10221,"gliamento":10222,"Ġdipinti":10223,"ganizzazione":10224,"Ġarchitettura":10225,"Ġaffidato":10226,"Ġsonora":10227,"Ġsoldi":10228,"Ġsentenza":10229,"braismo":10230,"Ġsentire":10231,"uer":10232,"Ġassorbi":10233,"Ġmeravi":10234,"Ġsemina":10235,"Ġstiamo":10236,"Ġpontefice":10237,"ĠChur":10238,"ÅĽ":10239,"Ġarrivando":10240,"Ã¼n":10241,"bitat":10242,"Ġfortezza":10243,"cellu":10244,"ĠIraq":10245,"ĠPh":10246,"Ġpassione":10247,"Ġattaccare":10248,"clade":10249,"cettori":10250,"Ġandato":10251,"Ġlanciato":10252,"ĠÃł":10253,"Ġcifra":10254,"Ġsopravvivenza":10255,"Ġtempli":10256,"ĠEugen":10257,"Ġconiu":10258,"HR":10259,"ĠLas":10260,"Ġgenetica":10261,"pina":10262,"Ġrivali":10263,"ĠComunitÃł":10264,"Ġistituita":10265,"Ġsviluppati":10266,"Ġindiani":10267,"ĠBrown":10268,"Ġadi":10269,"losa":10270,"Ġtagli":10271,"cciano":10272,"Iraq":10273,"Ġsapi":10274,"Ġellen":10275,"Altri":10276,"Ġfavori":10277,"Ġmantenendo":10278,"ĠEukaryota":10279,"ĠMai":10280,"Ġalbero":10281,"gena":10282,"vamo":10283,"Ġsigla":10284,"Ġtitolare":10285,"Ġacu":10286,"Ġfunzion":10287,"Ġdistrutto":10288,"Ġmaresciallo":10289,"pace":10290,"Ġdiviene":10291,"Ġimpie":10292,"PR":10293,"Ġritengono":10294,"Ġrapido":10295,"tativa":10296,"Ġstring":10297,"Ġcambiato":10298,"Ġristruttura":10299,"Ġdefinite":10300,"viano":10301,"Ġbella":10302,"det":10303,"Ġcalda":10304,"Ġpromuovere":10305,"Ġesistere":10306,"Ġdiscipline":10307,"Ġesterne":10308,"acquisto":10309,"Ġtenente":10310,"Ġsfruttamento":10311,"pino":10312,"Ġnati":10313,"Ġcontributi":10314,"Ġgiura":10315,"ĠPakistan":10316,"Ġsappiamo":10317,"Ġenormi":10318,"ĠCF":10319,"ĠLor":10320,"Ġ54":10321,"Ġesprimere":10322,"etano":10323,"logio":10324,"ĠSor":10325,"Ġguard":10326,"Ġrimpia":10327,"cks":10328,"inano":10329,"rad":10330,"Ġsotter":10331,"Ġsvolgono":10332,"AD":10333,"Prima":10334,"Ġconting":10335,"Ġsalvare":10336,"ologici":10337,"lani":10338,"Ġmanti":10339,"005":10340,"estione":10341,"Ġapertura":10342,"Ġsuddiviso":10343,"velli":10344,"ĠGala":10345,"Ġpositiva":10346,"Ġsovrapp":10347,"dimensionale":10348,"ĠHans":10349,"Ġmana":10350,"Ġinteri":10351,"mpati":10352,"onente":10353,"Ġvostro":10354,"ĠLazio":10355,"ĠMag":10356,"ttente":10357,"Ġdialogo":10358,"ĠGolfo":10359,"Ġrosa":10360,"Ġcongiun":10361,"yu":10362,"ĠMura":10363,"edro":10364,"Ġottenuti":10365,"Ġesisteva":10366,"Ġcarbu":10367,"ĠBad":10368,"Ġstatali":10369,"Ġannuale":10370,"Ġrisalire":10371,"ĠRio":10372,"Ġvoglio":10373,"Ġturistiche":10374,"mona":10375,"Ġsvolto":10376,"ĠConvenzione":10377,"ĠFrance":10378,"Ġbombe":10379,"Ġfrom":10380,"Ġuniforme":10381,"rigio":10382,"ccano":10383,"Ġpenale":10384,"spi":10385,"Ġ57":10386,"Ġmantenimento":10387,"Ġriscaldamento":10388,"Ġcostruite":10389,"Ġpie":10390,"Ġpotessero":10391,"Ġveloci":10392,"Ġpressioni":10393,"Ġlumino":10394,"Ġmeridionali":10395,"Ġcoinvolto":10396,"ĠTrans":10397,"ben":10398,"Ġadia":10399,"ĠDina":10400,"ĠFranÃ§ois":10401,"ĠNATO":10402,"Ġderivata":10403,"Ġcompetenza":10404,"ĠDy":10405,"ecce":10406,"zzanti":10407,"Ġprogresso":10408,"Ġriflessione":10409,"ĠSpesso":10410,"rvi":10411,"mali":10412,"Ġsalvo":10413,"Ġvince":10414,"Ġproietti":10415,"ttamento":10416,"Ġpolin":10417,"Ġfinanziaria":10418,"avanzata":10419,"gran":10420,"day":10421,"Ġavevo":10422,"diche":10423,"miliano":10424,"Ġintellettuale":10425,"Ġdomini":10426,"Ġscarica":10427,"Ġomogene":10428,"ĠMeta":10429,"Ġimprendi":10430,"inco":10431,"prattutto":10432,"Ġletterario":10433,"Ġcommedia":10434,"ginia":10435,"ĠEv":10436,"ĠdurÃ²":10437,"Ġstorio":10438,"istola":10439,"Ġteorica":10440,"Ġcomparsa":10441,"Ġpasto":10442,"Ġgenerazioni":10443,"Ġcoinvolti":10444,"kyo":10445,"nun":10446,"fondi":10447,"Ġavvol":10448,"Ġrealizza":10449,"Ġlinfo":10450,"ĠDouglas":10451,"Ġtipologia":10452,"Ġricordato":10453,"ĠCy":10454,"Ġbr":10455,"Ġprotesta":10456,"sul":10457,"ĠPat":10458,"Ġcatali":10459,"Ġliberale":10460,"Ġsignificativa":10461,"Ġpioggia":10462,"Ġsingole":10463,"Ġbombardamento":10464,"Ġja":10465,"Ġviaggia":10466,"Ġsvedese":10467,"ualmente":10468,"Ġrispondere":10469,"Ġcapelli":10470,"ĠVecchio":10471,"ĠAct":10472,"Ġirlandese":10473,"eng":10474,"Ġcontemporanei":10475,"Ġrari":10476,"ĠArthur":10477,"lay":10478,"perta":10479,"Ġdelimi":10480,"Ġospedali":10481,"Ġvasi":10482,"Mentre":10483,"sono":10484,"ferto":10485,"ĠLetteratura":10486,"kan":10487,"inqu":10488,"Ġeffettuata":10489,"Ġep":10490,"entazione":10491,"Ġminoranza":10492,"Ġinfluenzato":10493,"anello":10494,"Ġfamiliare":10495,"ĠAlbert":10496,"ĠSalvatore":10497,"Ġ>":10498,"Ġcra":10499,"Ġriduce":10500,"ĠOl":10501,"Ġcostituiti":10502,"Ġpane":10503,"Ġrendono":10504,"Ġirani":10505,"Ġrettan":10506,"bbre":10507,"Ġeccell":10508,"Ġvocale":10509,"Ġmostrare":10510,"ĠGallia":10511,"Ġpresu":10512,"Ġvertici":10513,"ĠConcilio":10514,"ceri":10515,"Ġbombardi":10516,"Nota":10517,"pal":10518,"astro":10519,"Ġcorretta":10520,"ĠCard":10521,"rci":10522,"Ġmappa":10523,"ggiÃ²":10524,"Ġpann":10525,"ziosi":10526,"Ġsospen":10527,"Ġbenefici":10528,"occhio":10529,"Ġrazionale":10530,"Ġderivato":10531,"Ġvittima":10532,"pul":10533,"Ġcombustione":10534,"Ġdistinte":10535,"Î¬":10536,"Ġ{":10537,"ĠAur":10538,"Ġsensibili":10539,"Ġmonito":10540,"Ġoceani":10541,"ĠAbra":10542,"ĠGirolamo":10543,"Ġ1913":10544,"Î³":10545,"Ġaltamente":10546,"Ġgusto":10547,"Ġriun":10548,"Ġurbani":10549,"Ġvel":10550,"Ġparticella":10551,"Ġidra":10552,"Ġversa":10553,"Ġdicono":10554,"ettive":10555,"istitu":10556,"Ġrispose":10557,"Ġbud":10558,"á¸¥":10559,"Ġgovern":10560,"ĠLun":10561,"ĠSudafrica":10562,"ominato":10563,"disce":10564,"Ġproteste":10565,"ĠGreci":10566,"Ġpreciso":10567,"Ġgrazia":10568,"Ġturco":10569,"ĠAssocia":10570,"tropi":10571,"ĠLudovico":10572,"manti":10573,"Ġradicali":10574,"ĠGaribaldi":10575,"Ġcrollo":10576,"Ġcoloniale":10577,"Ġdistinguono":10578,"Ġinno":10579,"cimento":10580,"Ġdecisamente":10581,"ĠOlimpia":10582,"inese":10583,"ĠMino":10584,"Ġsogg":10585,"Ġabitu":10586,"pes":10587,"Ġimma":10588,"Ġevolu":10589,"Ġconsistente":10590,"lanza":10591,"Ġorganizzare":10592,"Ġcompati":10593,"Ġintesa":10594,"Ġandata":10595,"Ġ1860":10596,"Ġlaterale":10597,"ĠHanno":10598,"ĠBig":10599,"Ġdisegni":10600,"Oggi":10601,"Ġcani":10602,"Ġcadde":10603,"intelli":10604,"istici":10605,"ĠSerbia":10606,"adozione":10607,"Ġsogno":10608,"ulteriore":10609,"ĠVla":10610,"Ġneur":10611,"ĠInizialmente":10612,"Ġmolteplici":10613,"Ch":10614,"Ġcelebri":10615,"Ġmodificato":10616,"?)":10617,"Ġconsegnati":10618,"ĠMolte":10619,"Ġvincitore":10620,"fazione":10621,"endone":10622,"Ġscientifici":10623,"ĠJacques":10624,"sive":10625,"Ġotta":10626,"ĠGalle":10627,"field":10628,"vacchia":10629,"tuania":10630,"Ġpuro":10631,"stino":10632,"Ġferroviaria":10633,"cida":10634,"Ġiniziativa":10635,"Ġzio":10636,"vezza":10637,"Ġcampioni":10638,"Ġpositivi":10639,"ĠFerrara":10640,"EL":10641,"RNA":10642,"Ġappassi":10643,"Ġchiari":10644,"ĠFisica":10645,"TC":10646,"abbazia":10647,"Ġcontribuito":10648,"giu":10649,"Ġemissioni":10650,"ĠRinascimento":10651,"ĠYou":10652,"Ġferma":10653,"ĠÏĦ":10654,"osero":10655,"alth":10656,"Ġcristalli":10657,"150":10658,"Ġapi":10659,"Era":10660,"dium":10661,"Ġpromo":10662,"ĠTrento":10663,"ĠAh":10664,"ufficio":10665,"Ġgem":10666,"mena":10667,"ĠNatale":10668,"Ed":10669,"Ġpag":10670,"cqu":10671,"ĠÂ°":10672,"Ġrinasci":10673,"Ġmettendo":10674,"stone":10675,"Ġmetaboli":10676,"omonimo":10677,"Ġcorretto":10678,"bani":10679,"fere":10680,"Ġ1905":10681,"Ġaspi":10682,"Ġmonumenti":10683,"Ġsesto":10684,"Ġage":10685,"Ġarca":10686,"Ġcausare":10687,"Ġprecipitazioni":10688,"ccini":10689,"Ġsconfis":10690,"erlo":10691,"ĠZo":10692,"Ġrafforza":10693,"vana":10694,"ĠCultura":10695,"Ġmigliora":10696,"Ġindustrie":10697,"ĠpresentÃ²":10698,"ĠGusta":10699,"giÃ²":10700,"Ġconcorso":10701,"tonomia":10702,"ĠMont":10703,"Ġinquad":10704,"Ġcorazzata":10705,"Ġcoman":10706,"Ġconquistare":10707,"Ġcompletato":10708,"Ġterritoriali":10709,"Ġdivise":10710,"Ġraccolte":10711,"Ġattribuita":10712,"Ġpapi":10713,"Ġsensori":10714,"Ġmentale":10715,"Ġmarmo":10716,"gnando":10717,"later":10718,"Ġappai":10719,"Ġriguardano":10720,"Ġzucchero":10721,"effica":10722,"Ġentrata":10723,"Ġriconosce":10724,"Ġcominciato":10725,"ĠcaffÃ¨":10726,"entamento":10727,"Ġconcerti":10728,"Ġcondurre":10729,"impatto":10730,"ame":10731,"Ġsupersti":10732,"ĠTol":10733,"ĠcavitÃł":10734,"ctus":10735,"Ġpiede":10736,"Ġtrage":10737,"ĠTokyo":10738,"Ġidentificato":10739,"Ġestesa":10740,"ĠTutto":10741,"Ġparlamentari":10742,"Sul":10743,"Ġ95":10744,"ĠBartolo":10745,"Ġosservato":10746,"Ġstipu":10747,"ĠMondiale":10748,"Ġmantenne":10749,"Ġprocedimento":10750,"á¹ĩ":10751,"Ġapri":10752,"Ġaffermando":10753,"Ġintrodu":10754,"Ġcostumi":10755,"Ġsoggior":10756,"tÃ¬":10757,"ĠGene":10758,"Ġ58":10759,"olio":10760,"Lu":10761,"ĠCli":10762,"Ġvariare":10763,"Ġrigoro":10764,"Ġderivati":10765,"Ġsfida":10766,"bes":10767,"erno":10768,"ĠPis":10769,"elico":10770,"Ġtossi":10771,"Ġmanovra":10772,"Ġsuperato":10773,"700":10774,"Äĵ":10775,"ĠTed":10776,"ĠMarocco":10777,"Ġuscito":10778,"ĠAca":10779,"ruzzo":10780,"ĠCodice":10781,"Ġtrasporti":10782,"mentata":10783,"ĠdiventÃ²":10784,"Ġfunzionale":10785,"Ġcromos":10786,"Ġcala":10787,"mpere":10788,"Ġgenerare":10789,"Ġinvestimenti":10790,"approvazione":10791,"Ġangoli":10792,"chester":10793,"ĠAndr":10794,"Ġpotete":10795,"estremitÃł":10796,"Ġpreser":10797,"Ġquotidiana":10798,"Giov":10799,"Ġfedele":10800,"ĠtÃ¨":10801,"teno":10802,"Ġpreli":10803,"Ġfuci":10804,"Ġdinosa":10805,"Ġefficiente":10806,"chea":10807,"ĠsensibilitÃł":10808,"Ġurbana":10809,"Ġambas":10810,"illy":10811,"Ġbatteria":10812,"ĠBernard":10813,"ĠStates":10814,"PA":10815,"Ġrestauro":10816,"Ġregistrazione":10817,"Ġdisposizioni":10818,"Ġcircostanze":10819,"orientale":10820,"Ġspontanea":10821,"Ã£o":10822,"lisi":10823,"rest":10824,"Ġlongi":10825,"ĠDante":10826,"Ġrappresentazioni":10827,"Car":10828,"Ġsinteti":10829,"Ġsena":10830,"Ġ1908":10831,"ĠJuan":10832,"Ġfarmaco":10833,"Ġhis":10834,"Ġrender":10835,"Ġcomplesse":10836,"URSS":10837,"posizioni":10838,"Ġfemminili":10839,"Ġreperti":10840,"2004":10841,"terebbe":10842,"Ġrimuo":10843,"Ġcostretti":10844,"Ġquadrato":10845,"ĠSira":10846,"ĠPort":10847,"Ġtensioni":10848,"Ġ800":10849,"ĠGalileo":10850,"uoi":10851,"Ġgramma":10852,"Ġsfondo":10853,"accusa":10854,"ĠLenin":10855,"Ã¨s":10856,"Ġcrede":10857,"Ġorizzontale":10858,"his":10859,"ĠSport":10860,"Ġmanuten":10861,"ĠGla":10862,"Ġfumetti":10863,"Ġesplora":10864,"orzio":10865,"sey":10866,"Ġfotografia":10867,"Ġbasati":10868,"Ġungherese":10869,"ĠRay":10870,"Ġboschi":10871,"uolo":10872,"ĠKen":10873,"Ġetero":10874,"ticitÃł":10875,"Ġodier":10876,"illu":10877,"Ġvaccino":10878,"Asburgo":10879,"iness":10880,"Ġcorrispondenti":10881,"Ġmarchese":10882,"ĠLar":10883,"zionaria":10884,"Ġaccedere":10885,"ĠJosÃ©":10886,"ĠFiat":10887,"artiglieria":10888,"Ġcifre":10889,"ĠpressochÃ©":10890,"ĠInstitute":10891,"bury":10892,"Ġtribunale":10893,"Ġdied":10894,"Ġcollegato":10895,"eco":10896,"ĠTolo":10897,"Ġlegali":10898,"Ġcaratterizzati":10899,"Ġdipartimento":10900,"Fa":10901,"cario":10902,"Ġsilla":10903,"ĠDemocrazia":10904,"Ġpura":10905,"ĠfunzionalitÃł":10906,"Ogni":10907,"Ġposteriori":10908,"Ġmitologia":10909,"Ġdistrutta":10910,"Ġconobbe":10911,"Ġ0000":10912,"ettando":10913,"Ġgrafica":10914,"Ġincentra":10915,"Ġconci":10916,"ordinamento":10917,"2006":10918,"ĠÄĮ":10919,"Ġdipendenza":10920,"ĠSettecento":10921,"ĠHall":10922,"Ġvere":10923,"curio":10924,"cipela":10925,"Ġfilosofico":10926,"ĠJournal":10927,"omencla":10928,"Ġmodulo":10929,"Ġincur":10930,"volu":10931,"Ġpietre":10932,"Ġtelefono":10933,"Ang":10934,"dÃ©":10935,"nos":10936,"Ġcongresso":10937,"Ġacciaio":10938,"ĠTeodo":10939,"offer":10940,"erÃ²":10941,"Ġconsegui":10942,"Ġriportati":10943,"ĠClo":10944,"ĠLibia":10945,"Ġspiegazione":10946,"Ġaccusato":10947,"Ġquaranta":10948,"Ġtrovavano":10949,"ĠDucato":10950,"Ġargomento":10951,"ĠSoli":10952,"Ġeseguito":10953,"offensiva":10954,"Ġcausando":10955,"MA":10956,"ĠArte":10957,"Ġerede":10958,"Ġmuse":10959,"ira":10960,"Ġrecita":10961,"Ġreggimento":10962,"Ġcontrastare":10963,"cismo":10964,"ggiante":10965,"cusa":10966,"Ġdivenire":10967,"Ġscoprire":10968,"Ġpersegui":10969,"ĠMalta":10970,"Ġarrivo":10971,"Ġinformazione":10972,"Ġbomba":10973,"ĠMatematica":10974,"Ġcostantemente":10975,"war":10976,"Ġspada":10977,"bine":10978,"Ġricogni":10979,"Ġparallelo":10980,"ĠHenri":10981,"ĠaccettÃ²":10982,"Ġraccolto":10983,"ĠGiove":10984,"Ġfiglie":10985,"Ġfavorire":10986,"anato":10987,"Ġbolla":10988,"Ġparente":10989,"Ġassiste":10990,"ĠpopolaritÃł":10991,"900":10992,"Ġtasse":10993,"Ġpubblicazioni":10994,"Ġriuscendo":10995,"zy":10996,"Ġsorve":10997,"soft":10998,"Ġgenerato":10999,"Ġdipendente":11000,"MI":11001,"ĠReli":11002,"Ġdovuti":11003,"ĠSchool":11004,"Ġcomunicazioni":11005,"dar":11006,"even":11007,"Ġimmuni":11008,"Ġsignori":11009,"ĠÏĢ":11010,"ĠDioni":11011,"hl":11012,"opla":11013,"Ġ118":11014,"Ġorale":11015,"ĠPersia":11016,"Regno":11017,"vine":11018,"Ġformali":11019,"Ġtipologie":11020,"Ġbuoni":11021,"Islam":11022,"Ġpacche":11023,"Ġfascismo":11024,"Ġsupremo":11025,"obbligo":11026,"Ġpomeri":11027,"ĠMessina":11028,"ĠEuro":11029,"gom":11030,"Ġoperai":11031,"Ġriparti":11032,"Ġcerchio":11033,"ustizia":11034,"Ġala":11035,"mobile":11036,"zionisti":11037,"UNESCO":11038,"Ġappaiono":11039,"Sta":11040,"Ġriescono":11041,"Ġvertice":11042,"ĠMed":11043,"Ġcemento":11044,"ĠBay":11045,"Ġirra":11046,"odierna":11047,"Ġaffreschi":11048,"cultura":11049,"Ġperde":11050,"Ġlezioni":11051,"Ġmessaggi":11052,"Ġcollegati":11053,"ĠPubli":11054,"Fra":11055,"Ġorganismo":11056,"elia":11057,"Ġammi":11058,"Ġricordano":11059,"TA":11060,"getto":11061,"Ġesecutivo":11062,"stano":11063,"Ġprestigio":11064,"ĠVil":11065,"Ġbersaglio":11066,"Ġfilosofica":11067,"2010":11068,"right":11069,"moro":11070,"ĠGor":11071,"Ġlavorato":11072,"Ġaggiungere":11073,"ĠZelanda":11074,"colato":11075,"diso":11076,"Ġdifese":11077,"Ġetiche":11078,"curo":11079,"Ġislamica":11080,"Ġlogo":11081,"Ġamplia":11082,"Ġcrona":11083,"Ġtene":11084,"Ġcomitato":11085,"ĠJan":11086,"endolo":11087,"Ġriferimenti":11088,"osservazione":11089,"ĠâĨĴ":11090,"Ġgerarchi":11091,"Ġempi":11092,"ortazione":11093,"ĠBom":11094,"ĠPoco":11095,"Ġsensibile":11096,"Ġnativi":11097,"ĠWei":11098,"Ġaccettato":11099,"ranee":11100,"Ġsparti":11101,"Ġanime":11102,"Ġmonti":11103,"udita":11104,"Ġmodificare":11105,"Ġcoraggio":11106,"alfabeto":11107,"prese":11108,"ĠUngheria":11109,"ĠPiero":11110,"Ġgiunto":11111,"ĠDer":11112,"seo":11113,"classi":11114,"pan":11115,"Ġriva":11116,"gliati":11117,"ĠDiritto":11118,"Ġcollegamenti":11119,"Ġsingolare":11120,"Ġcoltivazione":11121,"cchino":11122,"Ġpolo":11123,"ĠLago":11124,"Ġdischi":11125,"ett":11126,"ĠTutte":11127,"zon":11128,"Ġcolleghi":11129,"Ġconvinto":11130,"Ġ...":11131,"Ġlaser":11132,"ĠPompeo":11133,"ĠGrand":11134,"Ġpassati":11135,"Ġinteso":11136,"Cor":11137,"ĠCartagine":11138,"Australia":11139,"Ġscanda":11140,"Ġprendendo":11141,"Ġprimario":11142,"Ġvolle":11143,"fisso":11144,"Ġsepolto":11145,"ĠRol":11146,"ĠFI":11147,"correre":11148,"Ġdiedero":11149,"Ġlus":11150,"pidi":11151,"ĠoccupÃ²":11152,"autunno":11153,"Ġcredere":11154,"Ġarricchi":11155,"ĠFlori":11156,"Ġpeccato":11157,"rossa":11158,"Ġante":11159,"ĠPerchÃ©":11160,"Ġamministrativo":11161,"Ġcandidati":11162,"ĠGeneral":11163,"ombo":11164,"Ġespressa":11165,"ttari":11166,"Ġcolui":11167,"Ġguardie":11168,"minata":11169,"Ġpresentata":11170,"Ġsimmetria":11171,".:":11172,"Ġ72":11173,"ziata":11174,"2007":11175,"ĠFurono":11176,"ĠCru":11177,"ĠCreta":11178,"ĠBulgaria":11179,"riera":11180,"Ġrealmente":11181,"Ġhtt":11182,"ammiraglio":11183,"uovo":11184,"Ġdecidere":11185,"ĠpubblicitÃł":11186,"Ġdeterminate":11187,"Ġaustriaci":11188,"tia":11189,"Ġrati":11190,"Ġunicamente":11191,"Ġpromosso":11192,"Ġnervoso":11193,"ĠTimes":11194,"ĠÅł":11195,"Ġespressioni":11196,"Ġgesui":11197,"ĠMarx":11198,"colle":11199,"Ġinqu":11200,"kij":11201,"ĠMaestro":11202,"Ġpersonalmente":11203,"Ġproteina":11204,"Ġinevi":11205,"Ġ76":11206,"Ġgiungere":11207,"Ġpartecipanti":11208,"fficiale":11209,"Ġstere":11210,"Ġcaratterizza":11211,"Ġfuggire":11212,"offerta":11213,"sinistra":11214,"Ġcardina":11215,"Ġintitolata":11216,"vita":11217,"presidente":11218,"Ġlegislativo":11219,"ĠMedia":11220,"Ġprotestanti":11221,"ĠDun":11222,"ditori":11223,"ĠNess":11224,"Ġoperazione":11225,"Ġimpressi":11226,"Ġaccuse":11227,"ĠLituania":11228,"Ġturchi":11229,"ĠCia":11230,"ĠFedera":11231,"ĠGius":11232,"ĠArgentina":11233,"vania":11234,"ĠPS":11235,"ĠMul":11236,"Ġtrasferito":11237,"ĠMaurizio":11238,"ĠFilipp":11239,"Ġfior":11240,"ĠLee":11241,"issima":11242,"TS":11243,"ĠPen":11244,"Ġgiurisdizione":11245,"Ġmantiene":11246,"Ġtrasporta":11247,"attore":11248,"ĠLista":11249,"Ġ66":11250,"ranto":11251,"ĠBrun":11252,"Oceano":11253,"Ġcontenenti":11254,"lita":11255,"Ġsangu":11256,"Ġinfrastrutture":11257,"Ġusi":11258,"lussi":11259,"Ġdisturbo":11260,"uk":11261,"Ġarcheologici":11262,"Ġpaesaggio":11263,"Ġtraspar":11264,"Ġamericane":11265,"dolfo":11266,"ĠJackson":11267,"Ġscultore":11268,"ccome":11269,"CD":11270,"Ġscen":11271,"ĠHein":11272,"ĠAlexander":11273,"ĠIsab":11274,"Ġsultano":11275,"menda":11276,"Ġcimitero":11277,"Ġgirone":11278,"ĠEst":11279,"Ġful":11280,"Ġistruzioni":11281,"dride":11282,"gliono":11283,"Ġsottoposto":11284,"ĠFinlandia":11285,"Ä±":11286,"Ġtipiche":11287,"Ġverificare":11288,"Ġtua":11289,"ĠPertanto":11290,"ders":11291,"thi":11292,"ggiano":11293,"Ġtermica":11294,"Ġsostenne":11295,"ĠFan":11296,"Ġpiace":11297,"Ġstudiato":11298,"Associazione":11299,"Ġrepressione":11300,"cuo":11301,"orth":11302,"Ġprendono":11303,"ĠContro":11304,"'.":11305,"fin":11306,"ĠnovitÃł":11307,"Ġistituti":11308,"Ġaccompagnato":11309,"tonda":11310,"Ġrevisione":11311,"Ġtasti":11312,"Ġdedicati":11313,"Ġradiazioni":11314,"referto":11315,"Ġfusoli":11316,"2008":11317,"Ġdotto":11318,"ĠHill":11319,"Ġcrimini":11320,"ĠFern":11321,"Ġreag":11322,"Ġispirazione":11323,"Ġtelevisivo":11324,"ĠSistema":11325,"Assi":11326,"Ġfrontiera":11327,"Ġconfor":11328,"cestru":11329,"Ġcausata":11330,"Ġesame":11331,"Ġsuddivisione":11332,"ĠrecÃ²":11333,"tic":11334,"ĠDomini":11335,"Ġimpegnato":11336,"yan":11337,"Ġcomm":11338,"gala":11339,"Ġconcessione":11340,"Ġconden":11341,"Ġdeboli":11342,"2011":11343,"Ġdona":11344,"Ġarrivarono":11345,"Ġmiracolo":11346,"secondo":11347,"ĠWo":11348,"Ġandava":11349,"teranno":11350,"ĠBet":11351,"Ġhai":11352,"ceno":11353,"Ġinviare":11354,"ĠNSK":11355,"ĠQuar":11356,"ĠHaw":11357,"Ġeu":11358,"kola":11359,"ĠFondazione":11360,"ĠTaiwan":11361,"nella":11362,"trio":11363,"Ġ$":11364,"Ġquinta":11365,"Ġnodi":11366,"Chiesa":11367,"ener":11368,"plice":11369,"Ġassum":11370,"2005":11371,"Ġfiscale":11372,"ĠrivelÃ²":11373,"ĠFronte":11374,".;":11375,"ĠPD":11376,"Ġprosegui":11377,"Ġvini":11378,"ĠuscÃ¬":11379,"Ġriso":11380,"Ġscal":11381,"rina":11382,"Ġinna":11383,"tusias":11384,"Ġcavo":11385,"Ġcercato":11386,"ĠSur":11387,"ĠHel":11388,"Ġinedi":11389,"Ġribellione":11390,"Ġtessi":11391,"Ġconsentono":11392,"Ġvostra":11393,"Ġ:":11394,"ĠFul":11395,"Queste":11396,"ĠWikispecies":11397,"goni":11398,"Ġovunque":11399,"Ġdeterminati":11400,"inn":11401,"Ġcarburante":11402,"Ġmanutenzione":11403,"Ġmission":11404,"infanzia":11405,"Ġlarghezza":11406,"ĠMeri":11407,"Ġtetto":11408,"Ġdisposti":11409,"ĠparitÃł":11410,"Wikispecies":11411,"Ġritratto":11412,"Ġconsiderano":11413,"?,":11414,"ĠOtta":11415,"inghi":11416,"ĠscoprÃ¬":11417,"2001":11418,"Ġinfluenz":11419,"aviazione":11420,"utato":11421,"osessuali":11422,"Ġvegetazione":11423,"Ġcensimento":11424,"rini":11425,"alza":11426,"Ġindiana":11427,"Ġvalutare":11428,"Ġmartiri":11429,"ingo":11430,"Ġrivoluzionario":11431,"Ġauten":11432,"Ġconsegna":11433,"tarsi":11434,"ĠWat":11435,"ossigeno":11436,"ĠJi":11437,"strato":11438,"Ġpru":11439,"Ġelenco":11440,"Che":11441,"Ġvisse":11442,"Ġmassimi":11443,"spa":11444,"Ġcomandi":11445,"Ġaventi":11446,"Ġcavaliere":11447,"ĠNero":11448,"esopotamia":11449,"Ġflessi":11450,"ĠLand":11451,"ĠHouse":11452,"ĠGine":11453,"Ġmargine":11454,"Ġopini":11455,"ĠChampi":11456,"Ġavversari":11457,"ĠRegi":11458,"Ġapplicato":11459,"tronomia":11460,"Ġpromul":11461,"Ger":11462,"erate":11463,"Ġpilas":11464,"2012":11465,"haus":11466,"ĠTexas":11467,"cipelago":11468,"Ġabitato":11469,"Ġapparentemente":11470,"ĠTemp":11471,"Ġsembrava":11472,"ĠNar":11473,"Ġbombardamenti":11474,"ĠArt":11475,"Ġmatematici":11476,"ĠKir":11477,"logy":11478,"Ġcontemp":11479,"Ġgiunge":11480,"helm":11481,"Ġserra":11482,"Ġeco":11483,"osco":11484,"Ġanello":11485,"ĠUcraina":11486,"ĠBianca":11487,"Ġzi":11488,"Ġdebito":11489,"Go":11490,"Te":11491,"Ġacqu":11492,"fun":11493,"reo":11494,"Ġabbre":11495,"ĠDall":11496,"Ġstatuto":11497,"Ġoffr":11498,"zona":11499,"ĠBonaparte":11500,"tinua":11501,"Ġdistruggere":11502,"iniziativa":11503,"occidentale":11504,"Ġgrigio":11505,"Ġdispera":11506,"derÃł":11507,"drico":11508,"2003":11509,"Ġpalazzi":11510,"ĠSand":11511,"Ġentusias":11512,"ĠPuÃ²":11513,"Ġviceversa":11514,"ĠKra":11515,"ospe":11516,"terapia":11517,"Ġzampe":11518,"TV":11519,"Ġdiso":11520,"parto":11521,"ĠÎ±":11522,"UE":11523,"ratori":11524,"Ġstatistica":11525,"Ġsorpresa":11526,"Ġcollegata":11527,"Ġincarico":11528,"ĠConfederazione":11529,"ĠBuddha":11530,"ÃŁ":11531,"mmad":11532,"Ġripreso":11533,"Ġmoltiplica":11534,"pione":11535,"Ġeseguita":11536,"Ġdovesse":11537,"Ġtrattare":11538,"Ġsostenendo":11539,"Ġfusoliera":11540,"Ġospitare":11541,"ĠManto":11542,"Ġfondamenta":11543,"fasci":11544,"Ġinterazioni":11545,"Ġprocedere":11546,"Ġstradale":11547,"ĠInforma":11548,"Ġcorruzione":11549,"Ġcollegio":11550,"Ġgreche":11551,"Ġgalle":11552,"gliendo":11553,"resto":11554,"falo":11555,"Ġindividuali":11556,"Ġproven":11557,"Ġcostituite":11558,"camera":11559,"minati":11560,"Ġistruzione":11561,"Ġbici":11562,"Ġtelecom":11563,"ĠModena":11564,"Er":11565,"Ġleva":11566,"Ġimpri":11567,"Ġcredito":11568,"Ġmitraglia":11569,"zen":11570,"inc":11571,"ĠMet":11572,"Ġpresentazione":11573,"Iran":11574,"Ġaiuti":11575,"ĠProf":11576,"Ġsegreti":11577,"Ġprivilegi":11578,"Ġortodossa":11579,"Ġsfruttare":11580,"Ġesplicitamente":11581,"nera":11582,"Ġcooperazione":11583,"ĠSebasti":11584,"condu":11585,"Ġfur":11586,"Ġcostella":11587,"versione":11588,"ĠDie":11589,"Ġclienti":11590,"ĠJohnson":11591,"Ġale":11592,"fati":11593,"ĠSteph":11594,"ĠArchive":11595,"tras":11596,"Ġvent":11597,"Ġdecisero":11598,"Ġagente":11599,"Ġseppur":11600,"Ġmes":11601,"Ġelettronico":11602,"Ġraccoglie":11603,"Ġentrato":11604,"Ġsentimento":11605,"phia":11606,"Ġtoller":11607,"Ġessenziali":11608,"ĠFerrari":11609,"Ġserp":11610,"torni":11611,"Ġaddestramento":11612,"Ġderivano":11613,"unicazioni":11614,"Ġfioren":11615,"Ġavvenire":11616,"fle":11617,"invenzione":11618,"iale":11619,"ution":11620,"Ġfavorevoli":11621,"Ġrequisiti":11622,"richi":11623,"ince":11624,"ĠTan":11625,"gionamento":11626,"scienza":11627,"Ġelabora":11628,"gliari":11629,"Ġracchi":11630,"utamente":11631,"105171":11632,"Ġiniziative":11633,"Ġaudio":11634,"autonomia":11635,"Ġsentito":11636,"Ġpronto":11637,"Ġscavi":11638,"Ġseguaci":11639,"Ġtuber":11640,"Ġargento":11641,"Ġvoler":11642,"ttici":11643,"Ġcammino":11644,"Ġarrestato":11645,"Ġtumore":11646,"ĠAdriano":11647,"Ġorbita":11648,"sistema":11649,"ĠHil":11650,"ĠPavia":11651,"ĠBosnia":11652,"Ġquo":11653,"ä¸":11654,"Ġlenti":11655,"ĠMesopotamia":11656,"zionismo":11657,"ĠCommis":11658,"Ġceramica":11659,"ches":11660,"ĠDei":11661,"Ġmantenuto":11662,"Ġsfuggi":11663,"etu":11664,"Ġ1861":11665,"Ġleggero":11666,"aux":11667,"Ġangeli":11668,"mono":11669,"stie":11670,"Ġstress":11671,"Ġcompetenze":11672,"Ġallontan":11673,"Ġoperativa":11674,"ĠDuomo":11675,"Ġduro":11676,"Ġguarni":11677,"bare":11678,"wo":11679,"ĠLaw":11680,"rietÃł":11681,"flu":11682,"Ġinaugurato":11683,"ĠØ":11684,"Ġacqui":11685,"Ġadottata":11686,"ĠFriuli":11687,"ĠVirginia":11688,"mene":11689,"Ġconcilio":11690,"ssie":11691,"Ġchiu":11692,"impe":11693,"Ġgiunta":11694,"Ġseparate":11695,"tos":11696,"www":11697,"tua":11698,"inata":11699,"Ġriposo":11700,"Andre":11701,"ĠBrescia":11702,"cristi":11703,"omenclatura":11704,"Ġsimu":11705,"Ġbotte":11706,"Ġriunione":11707,"ĠIsland":11708,"Ġvedono":11709,"Ġestera":11710,"Ġappli":11711,"Ġpossiedono":11712,"fficientemente":11713,"Ġtrovarono":11714,"Ġperiodica":11715,"ĠColonia":11716,"Ġmedesima":11717,"ĠLeopoldo":11718,"Ġetrus":11719,"ress":11720,"ĠFabri":11721,"Ġ1901":11722,"Ġsof":11723,"erosi":11724,"ĠintensitÃł":11725,"Ġincidenti":11726,"Ġcella":11727,"mand":11728,"ĠKant":11729,"Ġseggi":11730,"ĠRoger":11731,"Ġcoa":11732,"bai":11733,"ĠApollo":11734,"inchi":11735,"Ġdebu":11736,"Ġtappa":11737,"zzoli":11738,"Ġplastica":11739,"Ġprovocando":11740,"Ġprole":11741,"ĠMarte":11742,"ĠChiese":11743,"teche":11744,"Ġrichiedono":11745,"ĠDalmazia":11746,"Ġ700":11747,"Ġceleste":11748,"Ġsocialismo":11749,"ership":11750,"Ġfolla":11751,"argomento":11752,"Ġsonno":11753,"ugu":11754,"Ġinsiemi":11755,"Ġottimi":11756,"Ġ115":11757,"Ġsalvezza":11758,"Ġriferito":11759,"uco":11760,"ĠcontribuÃ¬":11761,"Ġelettrici":11762,"ish":11763,"ascesa":11764,"attedrale":11765,"esplosione":11766,"ettata":11767,"Ġoperativi":11768,"Ġproporzionale":11769,"Ġolimpici":11770,"ĠConserva":11771,"Ġ62":11772,"Ġseguono":11773,"Ġsuccede":11774,"ttere":11775,"ĠSegretario":11776,"Ġmorta":11777,"Ġdiagnos":11778,"ĠincontrÃ²":11779,"ficia":11780,"ĠKong":11781,"Ġsentimenti":11782,"wig":11783,"ĠSong":11784,"Ġneopla":11785,"Ġristo":11786,"iniscono":11787,"ĠDaniel":11788,"ĠfedeltÃł":11789,"rista":11790,"Ġgon":11791,"Ġvogliono":11792,"inati":11793,"Ã©n":11794,"Ġposso":11795,"elop":11796,"Ġtrasmesso":11797,"Ġcellulari":11798,"Ġpartner":11799,"lista":11800,"Ġfutura":11801,"Ġnavali":11802,"Ġesecuzione":11803,"Ġ68":11804,"ĠdedicÃ²":11805,"Ġmelo":11806,"mart":11807,"Ġsacrificio":11808,"ĠCampania":11809,"Ġautomaticamente":11810,"Ġria":11811,"zzarsi":11812,"Ġfuturi":11813,"Ġoffrire":11814,"Ġborgo":11815,"kins":11816,"Ġconvi":11817,"Ġstare":11818,"ĠâĻ":11819,"ĠGiuliano":11820,"ĠGalles":11821,"Ġoma":11822,"Ġincar":11823,"ĠArchite":11824,"Ġminimi":11825,"Ġspecchio":11826,"Ġespresse":11827,"ĠArmy":11828,"Ġimpegno":11829,"ĠRavenna":11830,"Ġcupola":11831,"Ġponendo":11832,"sociali":11833,"Ġopposi":11834,"ĠAvi":11835,"Ġcontesta":11836,"2009":11837,"ĠaprÃ¬":11838,"Dis":11839,"nici":11840,"Ġcalcestru":11841,"Ġdivide":11842,"Ġprocedure":11843,"Ġinteressato":11844,"Ġemergenza":11845,"ulsi":11846,"Ġelas":11847,"Ġintroduzione":11848,"Ġ119":11849,"ĠDre":11850,"Ġprigione":11851,"Ġvenduto":11852,"Ġvos":11853,"dige":11854,"Ġvariano":11855,"ambas":11856,"inga":11857,"ccolÃ²":11858,"ĠNASA":11859,"omonima":11860,"Ġsignificativi":11861,"Ġcorazzate":11862,"zionista":11863,"Ġcanoni":11864,"Ġtrasportare":11865,"eschi":11866,"bica":11867,"Ġscuro":11868,"etica":11869,"edeva":11870,"Ġdiagnosi":11871,"Ġsettiman":11872,"Ġaustriaca":11873,"Ã¨i":11874,"Ġsodio":11875,"Ġchiuse":11876,"ĠTes":11877,"Ġgiusta":11878,"babilmente":11879,"ĠrelativitÃł":11880,"Ġminera":11881,"Ġmattino":11882,"elenco":11883,"Ġalleato":11884,"ĠCass":11885,"Ġmorali":11886,"beria":11887,"tures":11888,"Ġprofessione":11889,"Ġriviste":11890,"nie":11891,"rand":11892,"Ġbiografie":11893,"ĠCarolina":11894,"ĠIran":11895,"Ġtrascend":11896,"Ġsostituita":11897,"Ġbasate":11898,"traverso":11899,"Ġfavor":11900,"Ġperfetto":11901,"fismo":11902,"Ġsv":11903,"Ġteorico":11904,"DC":11905,"Ġripeti":11906,"ĠWhite":11907,"BM":11908,"Ġfiore":11909,"quino":11910,"ĠSali":11911,"ĠIntro":11912,"Ġsviluppi":11913,"valente":11914,"Ġsocialisti":11915,"Ġospedale":11916,"vard":11917,"Ġdose":11918,"Ġmediter":11919,"Ġdifensi":11920,"ĠSiena":11921,"ĠdiversitÃł":11922,"Ġnegozi":11923,"redo":11924,"unga":11925,"Ġfon":11926,"ĠMarsi":11927,"Ġonori":11928,"Ġscudo":11929,"Ġintervenire":11930,"tropologia":11931,"ĠSacra":11932,"ĠMonta":11933,"Ġriflessi":11934,"Ġprovare":11935,"goti":11936,"Ġlargamente":11937,"bero":11938,"set":11939,"ÉĻ":11940,"Ġzar":11941,"ĠCristiana":11942,"Ucraina":11943,"ĠBia":11944,"ĠGiovanna":11945,"Ġvor":11946,"Ġsecondaria":11947,"zzini":11948,"entati":11949,"ĠReggimento":11950,"Ġmuscoli":11951,"Ġvu":11952,"Ġsabbia":11953,"Ġraggiungono":11954,"ĠIsabella":11955,"Ġspaziali":11956,"Ġparassi":11957,"Ġaltrettanto":11958,"ange":11959,"Ġapprofi":11960,"Ġprevisti":11961,"glimento":11962,"ales":11963,"anico":11964,"ĠComuni":11965,"Ġrobot":11966,"Ġminor":11967,"ĠprovocÃ²":11968,"ĠSimone":11969,"Ġcontenuta":11970,"Ġregolarmente":11971,"Ġstudioso":11972,"ĠRosso":11973,"foni":11974,"otta":11975,"Ġcenti":11976,"Ġdenuncia":11977,"Ġepo":11978,"Ġaccres":11979,"Ġluna":11980,"Ġcriterio":11981,"wick":11982,"Ġincremento":11983,"Organizzazione":11984,"Ġdecorazione":11985,"nell":11986,"enorme":11987,"Ġvolere":11988,"2014":11989,"Ġaperti":11990,"Ġcosiddette":11991,"Ġcompagno":11992,"Ġhi":11993,"Ġassociazione":11994,"ĠdignitÃł":11995,"fen":11996,"gruppo":11997,"Ġestese":11998,"Ġibri":11999,"iscrizione":12000,"Ġindisp":12001,"Ġausili":12002,"Ġbatterie":12003,"amico":12004,"Ġchitar":12005,"Ġ59":12006,"Ġghiando":12007,"Ġenzimi":12008,"Ġmass":12009,"Ġstadi":12010,"Ġprocessione":12011,"Ġstraordinario":12012,"ĠAnima":12013,"Ġbuone":12014,"Ġatteggiamento":12015,"viaf":12016,"Ġmarca":12017,"Ġdirigenti":12018,"ĠMada":12019,"Ġpossedimenti":12020,"Ġappositamente":12021,"Ġlaghi":12022,"attivo":12023,"Ġluci":12024,"Ġparallela":12025,"ree":12026,"Ġsiete":12027,"ventura":12028,"Ġcontinuamente":12029,"Ġmuove":12030,"Ġdistribuito":12031,"Ġstabilisce":12032,"Ġesauri":12033,"ĠKhan":12034,"Ġcalcolare":12035,"Ġdemocratico":12036,"Ġconsentito":12037,"Ġcare":12038,"fos":12039,"Ġestate":12040,"Ġaustro":12041,"Ġanfi":12042,"Ġprossima":12043,"eritÃł":12044,"Ġassistenza":12045,"Vene":12046,"Ġritmo":12047,"Ġmie":12048,"eder":12049,"Ġfondamento":12050,"Ġbrasili":12051,"Ġrisalenti":12052,"Ġteso":12053,"Ġtrian":12054,"port":12055,"arcato":12056,"Ġmoti":12057,"ĠSocrate":12058,"ĠFilm":12059,"ĠGinevra":12060,"ii":12061,"ĠSera":12062,"Ġconclude":12063,"ĠBritanni":12064,"inazione":12065,"gamo":12066,"turno":12067,"Ber":12068,"ĠHong":12069,"Ġastro":12070,"ĠCile":12071,"Ġinformatica":12072,"ĠJuli":12073,"ĠFelice":12074,"ĠSiracusa":12075,"los":12076,"Ġpaga":12077,"Ġ63":12078,"Ġdepositi":12079,"omio":12080,"esame":12081,"ĠPeriodo":12082,"ĠannunciÃ²":12083,"Ġalfabe":12084,"Ġentrarono":12085,"Ġartiglieria":12086,"solo":12087,"Ġarrivano":12088,"ĠcambiÃ²":12089,"arne":12090,"ĠRepubbli":12091,"ĠMicrosoft":12092,"Ġcada":12093,"ĠDella":12094,"Ġstar":12095,"Ġsoldato":12096,"Ġabitazioni":12097,"Ġfisso":12098,"Ġnegativi":12099,"Ġritirarsi":12100,"ĠEinstein":12101,"OM":12102,"Oro":12103,"ĠDifesa":12104,"gersi":12105,"tiopia":12106,"ML":12107,"1999":12108,"Ġsuperficiale":12109,"equilibrio":12110,"ĠQual":12111,"ĠPlay":12112,"Ġscienziato":12113,"Ġmuore":12114,"Ġcomposte":12115,"assalto":12116,"Cla":12117,"ery":12118,"piani":12119,"ĠRegina":12120,"Ġinvernali":12121,"Ġcuo":12122,"ĠAbb":12123,"Ġradi":12124,"ĠWes":12125,"Ãī":12126,"Ġimi":12127,"Ġmosa":12128,"vecchia":12129,"Ġesilio":12130,"opport":12131,"ĠCami":12132,"Ã¶r":12133,"ĠAposto":12134,"Ġprofessionali":12135,"Ġpomeriggio":12136,"ĠIstituto":12137,"Ġcadere":12138,"ggiando":12139,"Ġarrivato":12140,"Ġprestito":12141,"gor":12142,"ĠNan":12143,"Ġcentra":12144,"ĠZara":12145,"fredo":12146,"Ġuman":12147,"bon":12148,"205171":12149,"ĠWikidata":12150,"Ġ1909":12151,"Aragona":12152,"Be":12153,"Ġ1906":12154,"Ġfara":12155,"zionate":12156,"ottica":12157,"ovvero":12158,"ĠColumbia":12159,"olfo":12160,"Ġspettatori":12161,"Ġpetroli":12162,"poi":12163,"Ġblocchi":12164,"ĠAff":12165,"Ġconcluso":12166,"Ġcontava":12167,"Ġfrances":12168,"imb":12169,"eries":12170,"gilla":12171,"2013":12172,"ylor":12173,"issione":12174,"inario":12175,"Ġsottospecie":12176,"Ġmanoscritti":12177,"intenzione":12178,"Ġriprendere":12179,"mont":12180,"Ġspiegato":12181,"Ġaccoppia":12182,"affermazione":12183,"tenente":12184,"Ġtappe":12185,"ĠFranz":12186,"ells":12187,"ĠAssociation":12188,"yya":12189,"Ġspre":12190,"Ġ67":12191,"genito":12192,"valli":12193,"125":12194,"Ġvitale":12195,"ĠHD":12196,"Ġ99":12197,"Ġconcorrenza":12198,"Ġaro":12199,"ĠPechino":12200,"ĠPopolo":12201,"Ġislamico":12202,"Ġsorti":12203,"ĠArabi":12204,"Ġ)":12205,"fatto":12206,"ĠNov":12207,"ĠScience":12208,"Ġbenessere":12209,"Ġfrequenze":12210,"prendo":12211,"Ġfinanziario":12212,"ĠMara":12213,"ĠostilitÃł":12214,"Ġfelice":12215,"Ġindicazioni":12216,"Ġ1907":12217,")-":12218,"ogle":12219,"Ġucra":12220,"gnolo":12221,"Ġdovere":12222,"cciolo":12223,"Ġvettoriale":12224,"ĠBoston":12225,"Ġecclesiastica":12226,"Ġvicinanze":12227,"Ġrison":12228,"ĠLewis":12229,"ĠAlber":12230,"ĠCattedrale":12231,"moder":12232,"Ġcanta":12233,"sil":12234,"Ġopinioni":12235,"Ð²":12236,"gora":12237,"ĠAldo":12238,"ĠBiologia":12239,"Ġadatto":12240,"kar":12241,"Ġé":12242,"Ġconversa":12243,"Ġverranno":12244,"ĠFiume":12245,"Ġordinati":12246,"Ġinsegnamenti":12247,"ĠSum":12248,"Ġautonomo":12249,"Ġdesidera":12250,"ospedale":12251,"Ġavente":12252,"Ġanaloga":12253,"Ã§a":12254,"Ġaprire":12255,"Ġafro":12256,"Ġ117":12257,"Ġneppure":12258,"Ġaffatto":12259,"Ġraggiungendo":12260,"uci":12261,"vier":12262,"Ġç":12263,"Ġcavi":12264,"Ġprati":12265,"meni":12266,"Ġcondusse":12267,"Ġandando":12268,"Ġliberamente":12269,"Ġcostiera":12270,"Ġconcesse":12271,"kra":12272,"unda":12273,"ĠNer":12274,"istituto":12275,"Pri":12276,"Ġ?":12277,"ĠThai":12278,"pire":12279,"Ġinternet":12280,"Ġpenso":12281,"visti":12282,"ĠLuisa":12283,"ĠfinÃ¬":12284,"Ġped":12285,"Ġcontare":12286,"ĠAbi":12287,"Ġdotate":12288,"ĠMah":12289,"Ġdivieto":12290,"Ġriba":12291,"Ġsuddivisa":12292,"Ge":12293,"Ġadottare":12294,"Ġcristall":12295,"Ġecolo":12296,"Ġgiocare":12297,"Ġritenuta":12298,"Ġdecadimento":12299,"Ġrilevanti":12300,"ĠAlleati":12301,"sell":12302,"ziamento":12303,"Ġtassa":12304,"ĠTrump":12305,"isso":12306,"CiÃ²":12307,"Ġunici":12308,"Mon":12309,"issimo":12310,"Ġimperatori":12311,"ĠCamer":12312,"Ġgiudici":12313,"Ġbraccia":12314,"Ġdovettero":12315,"Ġinviati":12316,"Ġpree":12317,"Ġrifugio":12318,"EG":12319,"Ġè":12320,"ranze":12321,"Ġintrodusse":12322,"Ġpne":12323,"chill":12324,"Ġimpar":12325,"ĠSimon":12326,"Ġesposto":12327,"Ġcertezza":12328,"alge":12329,"ĠLud":12330,"ÃŃn":12331,"Ġrileva":12332,"ttino":12333,"Ġdici":12334,"Ġparlando":12335,"Ġvenisse":12336,"Ġrossi":12337,"Ġespand":12338,"genesi":12339,"Ġcircostante":12340,")(":12341,"ming":12342,"menia":12343,"guendo":12344,"Ġsosteneva":12345,"Allo":12346,"ĠMetro":12347,"otball":12348,"ĠStreet":12349,"ĠRapp":12350,"Ġrecuperare":12351,"Ġrilascio":12352,"Ġconsapevolezza":12353,"Ġorna":12354,"Ġcampani":12355,"gla":12356,"str":12357,"Ġ1870":12358,"ĠfelicitÃł":12359,"Ġquindici":12360,"Ġapprovata":12361,"pin":12362,"0056":12363,"Ġsoddisfare":12364,"ĠPlu":12365,"ĠJane":12366,"Molti":12367,"Ġundici":12368,"Ġmilli":12369,"ĠProto":12370,"loni":12371,"Ġbarbari":12372,"Ġognuna":12373,"Ġcontratta":12374,"ĠElec":12375,"Ġdiplomatico":12376,"Ġspiaggia":12377,"Ġtelescopio":12378,"ĠEugenio":12379,"RI":12380,"omiale":12381,"Cl":12382,"Ġperpet":12383,"ĠCanale":12384,"Ġaristocra":12385,"orsi":12386,"ĠChris":12387,"Ġdeterminazione":12388,"cellona":12389,"Ġprevenire":12390,"ĠNiccolÃ²":12391,"He":12392,"Ġtrasformato":12393,"ÎŃ":12394,"Ġdila":12395,"Ġimpo":12396,"disse":12397,"eroe":12398,"Ġdubbi":12399,"inesi":12400,"uman":12401,"Ġgravemente":12402,"Ġpall":12403,"Ġopposta":12404,"tiniano":12405,"asp":12406,"Ġdettaglio":12407,"Ġgalassie":12408,"Ġsuddivi":12409,"Ġparenti":12410,"Ġfinora":12411,"ĠLibertÃł":12412,"ĠDVD":12413,"witter":12414,"Ġtradotto":12415,"zzatori":12416,"ĠMarino":12417,"ĠMoro":12418,"Ġfestival":12419,"ĠJones":12420,"Ġwa":12421,"Ġsportivo":12422,"plas":12423,"Ġrabb":12424,"Ġsorgenti":12425,"ĠChristian":12426,"tasi":12427,"Ġvittori":12428,"ĠOccidente":12429,"Ġpienamente":12430,"tton":12431,"Ġsufficientemente":12432,"Ġprede":12433,"Ġcalci":12434,"Ġmassiccio":12435,"Ġindicati":12436,"Ġraggiunta":12437,"Ġmisurare":12438,"Ġmeccanico":12439,"ĠopportunitÃł":12440,"Ġpandemia":12441,"%),":12442,"Ġtombe":12443,"Ġpeculiari":12444,"Ġfrazioni":12445,"ĠVladi":12446,"polare":12447,"ĠChristo":12448,"PU":12449,"ĠMay":12450,"ĠNikola":12451,"fr":12452,"viare":12453,"Ġrivelato":12454,"Ġferito":12455,"ĠGabriele":12456,"Ġpercorsi":12457,"Ġsovietiche":12458,"Ġinsigni":12459,"indagine":12460,"PD":12461,"Ġammon":12462,"Ġsorpr":12463,"Ġammino":12464,"Ġgravitazionale":12465,"Î´":12466,"Ġsvolse":12467,"acidi":12468,"Ġsottoposti":12469,"Ġripristina":12470,"bet":12471,"ĠImperia":12472,"cettore":12473,"Ġ73":12474,"Ġpredom":12475,"Ġevidenza":12476,"Ġvivi":12477,"bs":12478,"Ġsoglia":12479,"ĠUE":12480,"ĠPiano":12481,"Ġvalida":12482,"Ġbur":12483,"fora":12484,"Ġaffermare":12485,"Ġcinematografico":12486,"Ġlavor":12487,"mologia":12488,"Ġgrassi":12489,"Ġrestano":12490,"ĠXXI":12491,"tire":12492,"sass":12493,"Ġtratten":12494,"Ġeventualmente":12495,"smi":12496,"ĠQue":12497,"Ġdivenuta":12498,"Ġdefinitivo":12499,"Ġpiatto":12500,"Ġintensi":12501,"Ġimmobili":12502,"intento":12503,"Ġsospensione":12504,"cing":12505,"inate":12506,"ĠPietroburgo":12507,"Ġgiardini":12508,"ONU":12509,"glieri":12510,"Ġconvenzione":12511,"very":12512,"ĠQua":12513,"ĠForza":12514,"Ġiscrizioni":12515,"Ġperdono":12516,"ĠArn":12517,"Ġrappresentanza":12518,"Ġraffreddamento":12519,"Ġdebba":12520,"ĠComi":12521,"ĠCinese":12522,"Ġritardo":12523,"pli":12524,"Ġmel":12525,"Ġoffi":12526,"Ġtora":12527,"Ġapplicare":12528,"chus":12529,"Ġanziani":12530,"ĠTech":12531,"ĠEsp":12532,"Ġarru":12533,"forman":12534,"ĠVicenza":12535,"ĠFle":12536,"Ġiniziano":12537,"Ġcampionati":12538,"Ġhard":12539,"Ġ78":12540,"Ġcamere":12541,"pide":12542,"ĠCatania":12543,"2015":12544,"ĠAncora":12545,"Ġconosciute":12546,"ĠVoce":12547,"Ta":12548,"Ġpin":12549,"ĠSen":12550,"mandato":12551,"Ġtrasmessa":12552,"Ġcalcestruzzo":12553,"cinque":12554,"Ġbianche":12555,"Ġevangeli":12556,"uda":12557,"Ġdivenendo":12558,"Ġtreno":12559,"Ġnozione":12560,"ĠSofia":12561,"ĠIvan":12562,"Ġpremia":12563,"Ġspettacoli":12564,"Isola":12565,"Ġinterrotto":12566,"Ġminuto":12567,"Ġgiornalisti":12568,"Ġamicizia":12569,"mala":12570,"Ġcristiane":12571,"ĠKer":12572,"Ġperlo":12573,"ĠProte":12574,"ĠWilliams":12575,"efficienza":12576,"diano":12577,"Ġcodici":12578,"110":12579,"Ġmaestri":12580,"Ġpreco":12581,"verse":12582,"ĠWer":12583,"Ġesibi":12584,"ĠKara":12585,"ĠCis":12586,"305171":12587,"ĠnominÃ²":12588,"Ġcanadese":12589,"sini":12590,"ĠãĤ":12591,"Ġinterpreta":12592,"insedia":12593,"ĠDavide":12594,"Ġcontrollata":12595,"OC":12596,"andre":12597,"98700726":12598,"lav":12599,"Ġaffaccia":12600,"ĠChampions":12601,"Ġbiologica":12602,"ĠCuba":12603,"dan":12604,"Ñĥ":12605,"Ġpota":12606,"Ġintui":12607,"Ġalimenti":12608,"ĠVar":12609,"Ġabbra":12610,"Ġlinguaggi":12611,"ĠluminositÃł":12612,"Ġprescri":12613,"elaborazione":12614,"ceni":12615,"ska":12616,"Ġintrinse":12617,"Ġstagi":12618,"ĠWilhelm":12619,"Ġsequenze":12620,"ĠLancia":12621,"Ġavvenimenti":12622,"Ġcontratti":12623,"celliere":12624,"Ġrinas":12625,"ĠRimini":12626,"Ġpermetteva":12627,"Ġpresie":12628,"Ġimposte":12629,"Ġcogn":12630,"arsavia":12631,"Ġvivente":12632,"Ġvecchie":12633,"2002":12634,"ĠArchiviato":12635,"Ġapprofon":12636,"onto":12637,"Ġrecen":12638,"pers":12639,"Ġvoca":12640,"ĠVerdi":12641,"Giovanni":12642,"ĠPenn":12643,"toriali":12644,"andante":12645,"Ġ85":12646,"ding":12647,"geri":12648,"Ġtrasmettere":12649,"yne":12650,"orni":12651,"Ġmarine":12652,"2016":12653,"Ġpassaggi":12654,"Ġgiunti":12655,"Ġneutroni":12656,"umendo":12657,"arcidiocesi":12658,"forza":12659,"Ġprofonde":12660,"Ġcompressione":12661,"Ġsviluppate":12662,"Ni":12663,"Ġ77":12664,"ĠHegel":12665,"Ġpreten":12666,"Ġdiscendente":12667,"GND":12668,"ĠApple":12669,"Ġducato":12670,"incidente":12671,"Ġ74":12672,"Ġottica":12673,"remmo":12674,"Ġservono":12675,"Ġvivevano":12676,"Ġsegmento":12677,"ĠMarie":12678,"Ġprimato":12679,"ĠautoritÃłGND":12680,"ĠAugusta":12681,"Ġassicurare":12682,"Ġvuol":12683,"pido":12684,"ĠUgo":12685,"405171":12686,"Ġpoema":12687,"LAN":12688,"scio":12689,"Ġinterpretazioni":12690,"ĠestremitÃł":12691,"Ġguardare":12692,"ĠAleks":12693,"pora":12694,"Ġragazze":12695,"ĠBartolomeo":12696,"tics":12697,"Ġcalcare":12698,"coslo":12699,"Ġves":12700,"ĠMÃ©":12701,"Ġneanche":12702,"ĠWood":12703,"ĠCoun":12704,"cic":12705,"ĠPesca":12706,"Ġsoffi":12707,"Ġcapola":12708,"Ġregistrati":12709,"Ġtassi":12710,"ĠMusica":12711,"letti":12712,"ror":12713,"chetti":12714,"Ġsilenzio":12715,"Ġriorgani":12716,"805171":12717,"Ġcaratteristico":12718,"eccezione":12719,"Ġmantello":12720,"Ġcrosta":12721,"ĠFormula":12722,"tary":12723,"Aquila":12724,"bour":12725,"Ġruo":12726,"Ġfalsi":12727,"ĠGard":12728,"Ġcontinue":12729,"Ġriducendo":12730,"aboli":12731,"ĠPIL":12732,"Ġsubordina":12733,"GC":12734,"ĠGroup":12735,"Ġmonaco":12736,"ĠMusic":12737,"ĠGand":12738,"ccando":12739,"Ġvendite":12740,"Ġcolpa":12741,"Ġforniscono":12742,"Ġlogis":12743,"Ġfocali":12744,"Ġagisce":12745,"Ġconvinzione":12746,"Ġnervo":12747,"Ġarcheologico":12748,"Ġpreviste":12749,"Ġtenuti":12750,"ĠBarcellona":12751,"Ġtrasformata":12752,"Interna":12753,"OL":12754,"Ġconservatori":12755,"ID":12756,"elorus":12757,"Ġdestinazione":12758,"ĠTel":12759,"Ġrisposte":12760,"Ġcalibro":12761,"Äĥ":12762,"ĠtotalitÃł":12763,"ĠZu":12764,"Ġversante":12765,"Ġripiega":12766,"arresto":12767,"cciare":12768,"ĠDama":12769,"ĠJoe":12770,"Ġstrutturale":12771,"Ġagricola":12772,"emissione":12773,"unciÃ²":12774,"Ġ61":12775,"Ġscozzese":12776,"Ġ(Â°":12777,"ĠGh":12778,"Ġnozze":12779,"inalitÃł":12780,"Ġinsegnanti":12781,"Ġecci":12782,"arli":12783,"ĠAnato":12784,"ĠMale":12785,"Ġcompone":12786,"ĠCostitu":12787,"Ġperfino":12788,"ĠVinci":12789,"Ġcranio":12790,"Ġcalcoli":12791,"Ġpreis":12792,"ĠLatina":12793,"Ġ97":12794,"Ġindeboli":12795,"formance":12796,"áĥ":12797,"ficante":12798,"Ġrotte":12799,"Ġsaggi":12800,"Ġsostanziale":12801,"integrazione":12802,"Ġcomprendente":12803,"Ġtrama":12804,"ĠGrandi":12805,"Ġconservati":12806,"ĠInno":12807,"ĠCap":12808,"Ġprestigi":12809,"binieri":12810,"ĠFilippine":12811,"Ġconca":12812,"ĠaltresÃ¬":12813,"Ġcompongono":12814,"ËĲ":12815,"Ġlomb":12816,"Ġcompar":12817,"Ġcarni":12818,"Ġsommer":12819,"ĠFel":12820,"Ġspesa":12821,"Ġtriangolo":12822,"Ġrilevanza":12823,"Ġprogressivo":12824,"pedi":12825,"Tutti":12826,"ĠClar":12827,"Ġdegra":12828,"Ġbari":12829,"ĠForma":12830,"Ġelimin":12831,"Ġoccupano":12832,"ĠSpecie":12833,"Ġsottili":12834,"MP":12835,"orrei":12836,"Ġesercitare":12837,"Ġbatti":12838,"Ġlavorando":12839,"Ġriuscire":12840,"idrogeno":12841,"Ġfone":12842,"soprattutto":12843,"bico":12844,"Ġpuramente":12845,"ĠRocca":12846,"gnante":12847,"Ġvedeva":12848,"Ġagri":12849,"Ġstimato":12850,"Ġstrategica":12851,"Ġprotocollo":12852,"Ġresistere":12853,"Ġstime":12854,"ettere":12855,"Ġricono":12856,"ĠOne":12857,"Ġ1500":12858,"Ġoccupare":12859,"Ġlinfociti":12860,"Ġgrammatica":12861,"Ġsfa":12862,"ĠPsi":12863,"Ġteologo":12864,"guono":12865,"risce":12866,"versali":12867,"lero":12868,"Ġingi":12869,"ĠWikivoyage":12870,"Ġnazisti":12871,"Ġimposta":12872,"Ġoccupazione":12873,"Ġimbarca":12874,"Ġfune":12875,"Ġtentato":12876,"Ġtenendo":12877,"ĠRome":12878,"ĠAlfred":12879,"acco":12880,"Ġannul":12881,"Ġsupple":12882,"Ġseparata":12883,"Ġesposizione":12884,"Ġlicen":12885,"ĠFir":12886,"Ġesponente":12887,"Ġarbitra":12888,"Ġanarchi":12889,"Ġrasse":12890,"Ġastra":12891,"Ġfinita":12892,"Ġcilindri":12893,"1990":12894,"ĠCipro":12895,"ĠrealizzÃ²":12896,"Ġentrate":12897,"Ġeri":12898,"Ġmesse":12899,"Ġscultura":12900,"urazione":12901,"entÃ¬":12902,"ĠVarsavia":12903,"Ġavanz":12904,"Ġdirigente":12905,"Est":12906,"sor":12907,"Ġnavata":12908,"ĠLie":12909,"Continua":12910,"Ġmalgrado":12911,"Ġanalogo":12912,"ost":12913,"Ġtragedia":12914,"Ess":12915,"ĠÎ²":12916,"ĠMantova":12917,"ride":12918,"Ġ1904":12919,"Wikivoyage":12920,"ĠRoman":12921,"Ġcorteccia":12922,"Ġmosse":12923,"pani":12924,"osaurus":12925,"Ġaperte":12926,"Ġtol":12927,"utico":12928,"ladel":12929,"Ġocchio":12930,"Ġospitato":12931,"Ġimparare":12932,"ather":12933,"Au":12934,"cione":12935,"quale":12936,"Ġ(Â«":12937,"ĠTuni":12938,"Ġriconosciuti":12939,"ness":12940,"ttata":12941,"Ġtrovati":12942,"Ġindispensa":12943,"ortare":12944,"Ġpiombo":12945,"osauri":12946,"Ġconservata":12947,"Ġlegislazione":12948,"Ġsuggerisce":12949,"ĠRese":12950,"Ġvario":12951,"omica":12952,"posta":12953,"ĠRegio":12954,"Ġorganizzati":12955,"Ġalternative":12956,"Ġcerebrale":12957,"Ġepisco":12958,"Ġolandesi":12959,"Ġdeco":12960,"conosci":12961,"Ġtrattative":12962,"Ġcitata":12963,"Ġbabil":12964,"ĠBron":12965,"Ġdistretti":12966,"Ġbeato":12967,"Ġbolsce":12968,"Ġaccurate":12969,"Ġsinc":12970,"Ġsensazione":12971,"Ġasci":12972,"Ġeffettuati":12973,"Ġfame":12974,"Ġconquistato":12975,"ace":12976,"Ġconno":12977,"605171":12978,"amp":12979,"Ġdeposito":12980,"Ġqualora":12981,"Ġisp":12982,"Ġpromessa":12983,"ĠSystem":12984,"Ġrecettori":12985,"Ġaller":12986,"ĠManci":12987,"Ġintegrale":12988,"ĠScala":12989,"Ġseta":12990,"acquisizione":12991,"ĠPresid":12992,"Ġdivul":12993,"Ġcomandanti":12994,"ĠSinistra":12995,"ĠPle":12996,"ĠVerso":12997,"Ġfacciamo":12998,"phylum":12999,"Ġsina":13000,"alti":13001,"eroga":13002,"lag":13003,"fili":13004,"eller":13005,"Ġcompaiono":13006,"Ġfrutta":13007,"Ġbrillante":13008,"ĠBeni":13009,"ĠThi":13010,"ĠOp":13011,"Ġprus":13012,"Ġassegnata":13013,"erdÃ¬":13014,"Ġcloro":13015,"Ġsolari":13016,"ĠSigno":13017,"ĠSouth":13018,"ĠGenere":13019,"Ġfinanziari":13020,"Ġricognizione":13021,"att":13022,"doto":13023,"Ġsecondario":13024,"Ġintenso":13025,"sata":13026,"wei":13027,"Ġettari":13028,"Ġprovocare":13029,"Ġidone":13030,"giudi":13031,"ennale":13032,"Ġcomunicare":13033,"Ġcolpire":13034,"brica":13035,"ĠEmilio":13036,"Ġrisparmia":13037,"api":13038,"lava":13039,"ĠCE":13040,"conto":13041,"Ġfermare":13042,"Ĥ¬":13043,"intensitÃł":13044,"witz":13045,"Ġconcili":13046,"Ġinfluenze":13047,"ĠLy":13048,"Ġprofu":13049,"kel":13050,"ĠPho":13051,"Ġmarchi":13052,"Ġscoppia":13053,"ĠSua":13054,"Ġmonasteri":13055,"viÄĩ":13056,"Ġinclusa":13057,"xelles":13058,"mida":13059,"Ġsottostante":13060,"Ġdorsale":13061,"Ġstro":13062,"cast":13063,"Ġconsta":13064,"chine":13065,"ĠPremi":13066,"annessione":13067,"Ġinteg":13068,"ĠAbd":13069,"mistizio":13070,"allu":13071,"Ġprivi":13072,"Ġchiedendo":13073,"ses":13074,"ĠCongo":13075,"Ġpubblicate":13076,"versato":13077,"Ġinco":13078,"Ġriga":13079,"wen":13080,"tain":13081,"Ġmagia":13082,"Ġuccise":13083,"Ġcontemporaneo":13084,"ĠScott":13085,"Ġpetto":13086,"Ġlumin":13087,"ĠâĻ«":13088,"Ġ69":13089,"Ġricostruire":13090,"grande":13091,"Ġcospi":13092,"Ġinterpretata":13093,"assass":13094,"ĠPasqua":13095,"acciaio":13096,"Ã®":13097,"Ġ1866":13098,"indice":13099,"á¹Ń":13100,"Ġprogressiva":13101,"ving":13102,"Ġlito":13103,"Ġconteni":13104,"Ġtarda":13105,"ĠsuperioritÃł":13106,"Ġquote":13107,"Ġleone":13108,"Ġpatrono":13109,"Ġarrivati":13110,"Ġapparire":13111,"Ġprofessionisti":13112,"Pu":13113,"Ġrisor":13114,"ĠGuinea":13115,"Ġpasta":13116,"ef":13117,"2017":13118,"Ġfinestre":13119,"GB":13120,"Ġcure":13121,"Ġfranchi":13122,"Ġassegnati":13123,"infini":13124,"ĠvaliditÃł":13125,"Ġinsediamento":13126,"ĠcausÃ²":13127,"Ġagricole":13128,"Ġ116":13129,"Ġrilievi":13130,"laro":13131,"Ġparchi":13132,"Ġrappresentava":13133,"tell":13134,"Ġproli":13135,"piti":13136,"Inter":13137,"Andrea":13138,"ĠAlta":13139,"errato":13140,"ĠAnth":13141,"Ġaccentu":13142,"Ġfunzionare":13143,"Ġaccus":13144,"Ġscopre":13145,"Ġnarrazione":13146,"Ġverbo":13147,"Ġsabato":13148,"ingere":13149,"Ġbarone":13150,"Ġcolloca":13151,"acca":13152,"esero":13153,"alimentazione":13154,"Ġvidero":13155,"ĠIngegneria":13156,"Ġprimarie":13157,"angel":13158,"py":13159,"Ġtreni":13160,"tral":13161,"ĠOffi":13162,"505171":13163,"905171":13164,"Ġelicotteri":13165,"ĠMaj":13166,"milton":13167,"Ġpittori":13168,"Ġunione":13169,"ĠPubb":13170,"ĠFrancis":13171,"intervista":13172,"ĠdefinÃ¬":13173,"Ġperduto":13174,"desse":13175,"Ġeditrice":13176,"Ġproseguire":13177,"Ġstraordinaria":13178,"chessa":13179,"moti":13180,"Ġraro":13181,"ĠGaio":13182,"Ġappropria":13183,"Ġsettentrionali":13184,"Ġriflette":13185,"gali":13186,"incar":13187,"Ġcostanti":13188,"ĠPir":13189,"Ġevidenti":13190,"Ġportoghesi":13191,"ĠSche":13192,"ĠPass":13193,"Ġelettriche":13194,"lento":13195,"Ġdocumentario":13196,"Ġnodo":13197,"misfero":13198,"Ġcr":13199,"ashi":13200,"ĠSalo":13201,"Ġandarono":13202,"Ġsemif":13203,"Ġpoesie":13204,"Ġraddo":13205,"Ġces":13206,"deri":13207,"ĠDiego":13208,"Ġservire":13209,"Ġriportata":13210,"Ġcontinuato":13211,"ĠChurchill":13212,"lov":13213,"isca":13214,"ĠAk":13215,"Ġmercen":13216,"tute":13217,"Ġlogico":13218,"Ġrare":13219,"ĠVisi":13220,"Ġasser":13221,"originale":13222,"Ġrespira":13223,"ĠFos":13224,"Ġintermedia":13225,"Ġapparve":13226,"Ġeditore":13227,"Ġcess":13228,"ĠSchi":13229,"ason":13230,"uste":13231,"ĠEsse":13232,"Ġpeda":13233,"tizie":13234,"Ġsottomar":13235,"ferma":13236,"Ġcugino":13237,"rough":13238,"ĠMia":13239,"Ġcontinuano":13240,"als":13241,"Ġmetafisica":13242,"Ġpotenzialmente":13243,"Ġsceneggiatura":13244,"Ġanteriori":13245,"allevamento":13246,"Ġbanconote":13247,"zoni":13248,"esclu":13249,"Ġeffettuate":13250,"Ġincaricato":13251,"ĠComple":13252,"Ġviolenta":13253,"Ġinteressanti":13254,"ĠAndrÃ©":13255,"Ġpiro":13256,"Ġsbarco":13257,"Ġrivale":13258,"gicamente":13259,"Ġpassata":13260,"Ġefficaci":13261,"Ġmanuale":13262,"Ġvisti":13263,"Ġistituzionale":13264,"Ġconsigliere":13265,"Ġtavolo":13266,"Ġvasti":13267,"issero":13268,"Ġdeputato":13269,"Ġgolfo":13270,"Ġangolare":13271,"Ġnew":13272,"ĠKy":13273,"Ġdirette":13274,"ĠReal":13275,"Ġamministrative":13276,"cetti":13277,"Ġcomi":13278,"uguaglianza":13279,"ziÃ²":13280,"Ġbande":13281,"Ġlotte":13282,"Ġappoggio":13283,"Ġsopravvissuti":13284,"Ġconv":13285,"ĠGaetano":13286,"Ġvendere":13287,"Ġcomplessiva":13288,"ĠRobin":13289,"Ġraggiunsero":13290,"Ġsignificative":13291,"ĠEar":13292,"Ġcompletata":13293,"Ġdifenso":13294,"Ġanelli":13295,"Ġdiceva":13296,"Ġpubblicamente":13297,"Ġgloria":13298,"Ġaccolto":13299,"ĠDeuts":13300,"Ġaggra":13301,"Ġenergetico":13302,"entitÃł":13303,"ĠSub":13304,"ĠpartÃ¬":13305,"Dio":13306,"Ġimpulso":13307,"entano":13308,"ĠVic":13309,"fosi":13310,"ĠProprio":13311,"Ġsangui":13312,"Ġenergie":13313,"Ġasiatico":13314,"Ġpseud":13315,"Ġtrascri":13316,"Ġscopri":13317,"ĠDinastia":13318,"ÙĬ":13319,"Ġserata":13320,"Ġ1800":13321,"Ġproduzioni":13322,"Ġalluminio":13323,"ĠOro":13324,"Ġsessi":13325,"venia":13326,"culo":13327,"randosi":13328,"Man":13329,"Ġrichiedere":13330,"cquero":13331,"ingi":13332,"Ġgiri":13333,"Ġderivate":13334,"ddistin":13335,"Ġemozioni":13336,"psia":13337,"ments":13338,"pacitÃł":13339,"Ġvolontaria":13340,"ĠWolf":13341,"Ġbiologico":13342,"ago":13343,"ĠTaylor":13344,"Ġpianoforte":13345,"Ġconsac":13346,"ĠWeb":13347,"ĠBrigata":13348,"Ġreplica":13349,"Ġburo":13350,"Ġprevisioni":13351,"Ġrispettare":13352,"Ġambiti":13353,"ducato":13354,"spru":13355,"Sempre":13356,"Ġafricani":13357,"Ġtropicali":13358,"Ġsvolgimento":13359,"Ġ82":13360,"Ġmusicisti":13361,"ĠPana":13362,"Ġproviene":13363,"Ġpoeti":13364,"Ġlongitu":13365,"Ġnet":13366,"Ġaggiungendo":13367,"Ġinserita":13368,"ĠDol":13369,"mbria":13370,"colosi":13371,"Ġinfia":13372,"Ġriprende":13373,"PC":13374,"Î¸":13375,"Ġtalmente":13376,"Ġdecorazioni":13377,"Ġimmigrati":13378,"Ġpioni":13379,"Ġscontra":13380,"guay":13381,"Ġdominazione":13382,"Th":13383,"Ġvass":13384,"Ġmaturi":13385,"Ġcolline":13386,"1945":13387,"Ġdiminuire":13388,"rello":13389,"arcivescovo":13390,"Ġelementare":13391,"ĠritirÃ²":13392,"olitico":13393,"cis":13394,"ets":13395,"garo":13396,"Ġcomplessivo":13397,"osi":13398,"Ñı":13399,"dameri":13400,"Ġlievi":13401,"ĠPalla":13402,"Ġfinestra":13403,"Ġcondotte":13404,"ĠGoogle":13405,"Ġdono":13406,"ĠLingu":13407,"Ġelettori":13408,"coln":13409,"Ġmemorie":13410,"trito":13411,"Ġ1898":13412,"corpi":13413,"Ġrusse":13414,"IC":13415,"Ġvertebra":13416,"140":13417,"Ġpatriarca":13418,"Ġsperimentali":13419,"elettro":13420,"Ġrituali":13421,"gibili":13422,"Ġ900":13423,"Ġtono":13424,"mph":13425,"ĠLuciano":13426,"Ġesperimento":13427,"ĠconquistÃ²":13428,"×Ļ":13429,"Ġantenati":13430,"Ġincursioni":13431,"ronimo":13432,"illes":13433,"2022":13434,"ĠGianni":13435,"Ġuniti":13436,"Ġgrafico":13437,"cropoli":13438,"Ġveter":13439,"Ġdegen":13440,"ĠHor":13441,"Ġderivanti":13442,"rey":13443,"than":13444,"Ġcontraddistin":13445,"Ġsubisce":13446,"AA":13447,"impro":13448,"Ġfalso":13449,"Ġdecollo":13450,"gliate":13451,"ĠMarcello":13452,"Ġstretti":13453,"Ġappartenenza":13454,"ĠRad":13455,"Infine":13456,"ĠDay":13457,"Ġparagona":13458,"ĠWilson":13459,"Ġospite":13460,"Ġoffri":13461,"sazioni":13462,"ĠsegnÃ²":13463,"Ġfondatori":13464,"Ġnormativa":13465,"Ġmonumentale":13466,"Ġprivilegia":13467,"ĠStella":13468,"ush":13469,"Ġinfra":13470,"Ġsalita":13471,"VII":13472,"zel":13473,"zina":13474,"Ġì":13475,"ĠAchi":13476,"Ġsimpati":13477,"ĠPace":13478,"hammad":13479,"ĠResearch":13480,"Antico":13481,"Ġcollettivo":13482,"Ġdeterminante":13483,"Ġsufficienti":13484,"viet":13485,"Ġcensura":13486,"Ġconfusione":13487,"ombra":13488,"ĠOccidentale":13489,"Ġscelse":13490,"Ġofferta":13491,"Ja":13492,"Ġunita":13493,"Ġintrodurre":13494,"Ġosservazione":13495,"Ġcompromesso":13496,"lor":13497,"ĠdÃ¨i":13498,"ppare":13499,"craft":13500,"Ġmuoversi":13501,"ĠBernardo":13502,"Altre":13503,"Ġintre":13504,"Ġdinosauri":13505,"gole":13506,"Ġrispettivi":13507,"Ġpresupp":13508,"Ġneuroni":13509,"Angelo":13510,"ĠStori":13511,"elevata":13512,"ĠScienza":13513,"ĠSparta":13514,"ĠDan":13515,"Ġsignificati":13516,"ĠBruxelles":13517,"abolizione":13518,"mentati":13519,"Ġridotte":13520,"Ġferite":13521,"ĠHigh":13522,"Ġrisca":13523,"Ġvulnera":13524,"Ġfatica":13525,"ĠOrientale":13526,"Ġcatturato":13527,"Ġbizantina":13528,"Ġmangiare":13529,"Ġesposti":13530,"Ġscale":13531,"Ġrinascimentale":13532,"Ġrumore":13533,"Ġcaratterizzate":13534,"Ġ1903":13535,"Ġformulazione":13536,"Ġitalo":13537,"arche":13538,"nazione":13539,"Ġgravidanza":13540,"Ġsopravvivere":13541,"Ġtelecomunicazioni":13542,"fani":13543,"ettura":13544,"ĠDario":13545,"centro":13546,"Ġ98":13547,"Ġgiunsero":13548,"vil":13549,"ingen":13550,"Ġdescritti":13551,"Ġcommissario":13552,"Ġgeno":13553,"viale":13554,"ĠLucia":13555,"Ġvalli":13556,"Ġcoinvolgimento":13557,"rgli":13558,"Ġze":13559,"Ġperven":13560,"Ġreliquie":13561,"maco":13562,"Ġcami":13563,"fori":13564,"Ġassedia":13565,"anzitutto":13566,"Ġcoincide":13567,"Ġreato":13568,"Ġjugosla":13569,"Ġdiversamente":13570,"Ġseparato":13571,"sula":13572,"fono":13573,"mund":13574,"Ġtornato":13575,"Ġdormi":13576,"Ø±":13577,"liti":13578,"ĠLÃ©":13579,"Ġattrib":13580,"Ġcircostanti":13581,"Ġemissione":13582,"Ġseguirono":13583,"ĠVenere":13584,"Ġbaro":13585,"Ġcollegate":13586,"Ġinfinito":13587,"Ġinclina":13588,"affi":13589,"Ġanglosass":13590,"eventuale":13591,"Aeronautica":13592,"rs":13593,"eratrice":13594,"aristo":13595,"Ġdiffon":13596,"Ġstraniere":13597,"Ġrinunciare":13598,"Ġrimozione":13599,"1998":13600,"Ġrurali":13601,"Ġartista":13602,"Ġplane":13603,"Ġvalido":13604,"Ġadoles":13605,"Ġliste":13606,"cesse":13607,"incirca":13608,"Ġregolamento":13609,"Ġtrasformare":13610,"opportunitÃł":13611,"far":13612,"ĠterminÃ²":13613,"Ġlimitare":13614,"Ġparlata":13615,"Ġestremi":13616,"Ga":13617,"mg":13618,"tuti":13619,"ĠGenti":13620,"Ġquattor":13621,"Ġscelti":13622,"Ġregistro":13623,"tide":13624,"Ġlento":13625,"Ġalleanza":13626,"Ġcarbonica":13627,"Ġprovato":13628,"Ġerrone":13629,"insediamento":13630,"tese":13631,"Ġmali":13632,"Ġinfezioni":13633,"ĠlavorÃ²":13634,"estici":13635,"Ġgambe":13636,"Ġraggiungimento":13637,"Ġbarriera":13638,"ducibile":13639,"Ġcasta":13640,"Ġreggi":13641,"ĠModer":13642,"Ġcittadine":13643,"Ġsconfisse":13644,"Ġ79":13645,"Ġfascio":13646,"iva":13647,"ziosa":13648,"Ġrione":13649,"gner":13650,"anzio":13651,"Ġpercor":13652,"Ġreparto":13653,"Ġportava":13654,"kers":13655,"Ġbro":13656,"Ġsecco":13657,"Ġ1890":13658,"ĠTras":13659,"Ġpianificazione":13660,"Ġalgoritmi":13661,"Ġturbo":13662,"Ġproiezione":13663,"Ġoscilla":13664,"vore":13665,"Ġlimita":13666,"pher":13667,"Ġsati":13668,"Ġvolare":13669,"Ġparticolar":13670,"ĠLife":13671,"donesia":13672,"Ġaumentando":13673,"Ġcatastro":13674,"Ġdiscepoli":13675,"ĠOvest":13676,"Ġfunzionali":13677,"Ġbuono":13678,"ĠCFIV":13679,"now":13680,"ĠAntica":13681,"ticismo":13682,"âĢİ":13683,"Ġ1902":13684,"Ġcombattenti":13685,"Ġscioglimento":13686,"Ġshow":13687,"timento":13688,"Ġgesto":13689,"lanese":13690,"Ġsostituiscono":13691,"Ġdipendono":13692,"ĠBoni":13693,"Ġoscura":13694,"Ġintanto":13695,"ĠMessa":13696,"ĠKon":13697,"Ġleggeri":13698,"ĠRussell":13699,"rosso":13700,"Ġnemiche":13701,"Ġinfli":13702,"ĠPeru":13703,"ĠHamilton":13704,"Ġcereali":13705,"PiÃ¹":13706,"Ġpatologie":13707,"Ġmonarca":13708,"ĠTec":13709,"integra":13710,"ĠLibano":13711,"bei":13712,"Ġnano":13713,"Ġcorrispondono":13714,"ĠThailandia":13715,"116":13716,"Ġaccompa":13717,"117":13718,"ĠAqui":13719,"bati":13720,"Ġcontesti":13721,"Ġrisonanza":13722,"Ġabbassa":13723,"ĠDati":13724,"Ġelettronici":13725,"Ġfortificazioni":13726,"Ġcapitoli":13727,"rmi":13728,"Ġrovina":13729,"ĠLou":13730,"ĠTaranto":13731,"ĠSinga":13732,"Ġdottrine":13733,"Ġrimb":13734,"back":13735,"esimo":13736,"Ġcompensa":13737,"Ġlava":13738,"Ġsec":13739,"Ġdiscesa":13740,"Ġavviato":13741,"fic":13742,"1995":13743,"Ġsottoscri":13744,"Ġabbandonata":13745,"Ġrimanendo":13746,"Ġcelebrazione":13747,"Ġpanorama":13748,"To":13749,"Ġcis":13750,"Ġrilevato":13751,"Ġpiogge":13752,"Ġraccomanda":13753,"alter":13754,"Ġprevenzione":13755,"duo":13756,"Ġlitri":13757,"Ġterro":13758,"ĠKan":13759,"tativi":13760,"ĠContin":13761,"Ġapertamente":13762,"ĠElena":13763,"Ġced":13764,"Ġsili":13765,"Ġbello":13766,"Ġtramon":13767,"Ġuniverso":13768,"Ġriportare":13769,"pali":13770,"Ġgira":13771,"Ġrob":13772,"Ġnettamente":13773,"sos":13774,"assunzione":13775,"Ġbrigata":13776,"Ġtradimento":13777,"ĠSicilie":13778,"Ùħ":13779,"orchestra":13780,"Ġgrossi":13781,"guna":13782,"tsu":13783,"Ġgerarchia":13784,"ĠCH":13785,"Ġsolenne":13786,"ĠCappella":13787,"unni":13788,"Ġnetto":13789,"Ġportaerei":13790,"Ġrimar":13791,"Ã©ra":13792,"2019":13793,"Ġufficio":13794,"Ġloca":13795,"Ġdiresse":13796,"Ġvela":13797,"Ġtimore":13798,"dicesimo":13799,"Ġsvanta":13800,"alba":13801,"filo":13802,"Ġspinse":13803,"Ġmodella":13804,"Ġcapitalismo":13805,"Alcune":13806,"xel":13807,"Ġdirezioni":13808,"Ġlineari":13809,"ussemburgo":13810,"à¼":13811,"Ġveste":13812,"ĠRin":13813,"ĠIns":13814,"ĠIndie":13815,"Ġattraversato":13816,"Ġbasta":13817,"Ġvegetale":13818,"Ġimposto":13819,"Ġlibere":13820,"Ġpolmoni":13821,"Ġsposato":13822,"CH":13823,"fone":13824,"Ġod":13825,"Ġimpos":13826,"Ġgrotte":13827,"Ġcostiere":13828,"Ġvicinanza":13829,"Ġfibra":13830,"Ġassedio":13831,"Ġviolazione":13832,"renti":13833,"brei":13834,"Ġassimi":13835,"Ġiscritti":13836,"cheletro":13837,"emergenza":13838,"andolo":13839,"ĠULAN":13840,"1997":13841,"Ġrivolto":13842,"Ġglobali":13843,"ĠLincoln":13844,"Ġepoche":13845,"Ïĩ":13846,"Ġcitati":13847,"Ġdecisivo":13848,"Ġnaviga":13849,"Ġeccezioni":13850,"ternitÃł":13851,"americani":13852,"Par":13853,"Ã«v":13854,"Ġ350":13855,"gnarono":13856,"Ġdedicate":13857,"Ġefficacia":13858,"Ġisoto":13859,"Ġlettori":13860,"Ġelementari":13861,"Ġattraversare":13862,"Ã¦":13863,"incre":13864,"Ġine":13865,"Ġabiti":13866,"Ġsconfitte":13867,"impegno":13868,"nice":13869,"ĠInd":13870,"2018":13871,"ferno":13872,"Ġnastro":13873,"lusconi":13874,"Ġbestiame":13875,"Ġdita":13876,"low":13877,"Ġincluse":13878,"abband":13879,"Ġstabilimento":13880,"ĠConferenza":13881,"Ġprevalenza":13882,"intelligenza":13883,"Tale":13884,"riato":13885,"ĠDemocratica":13886,"Ġmedievali":13887,"ĠPolo":13888,"kie":13889,"ĠAlto":13890,"Ġribatte":13891,"ĠSÃ¬":13892,"Ġaccredi":13893,"Ġfissato":13894,"Ġgovernato":13895,"Ġvenuto":13896,"carlo":13897,"ÏĨ":13898,"ĠPerÃ¹":13899,"ĠCollana":13900,"Ġsfruttando":13901,"intervallo":13902,"810":13903,"Ġbombardieri":13904,"Ġsguardo":13905,"Ġtubi":13906,"ĠmortalitÃł":13907,"sati":13908,"pedini":13909,"preso":13910,"ĠMosÃ¨":13911,"Ġpadrone":13912,"Ġredazione":13913,"Ġscorta":13914,"1991":13915,"Ġacquisito":13916,"Ġpiega":13917,"Ġrischia":13918,"Ġeretta":13919,"Ġprigioniero":13920,"Ini":13921,"ST":13922,"tae":13923,"Ġridi":13924,"hat":13925,"bir":13926,"Ġprovocato":13927,"CN":13928,"jan":13929,"tizzazione":13930,"Ġbon":13931,"Ġcassa":13932,"Ġpotendo":13933,"Ġottico":13934,"Ġtemporaneamente":13935,"Ġq":13936,"ĠPSI":13937,"Ġ112":13938,"Ġesporta":13939,"Ġminoranze":13940,"Ġcelle":13941,"Ġarchitetto":13942,"Ð´":13943,"Ġsy":13944,"Ġdistante":13945,"Ġecco":13946,"unte":13947,
[...]
